<pad>	0
<unk>	0
<s>	0
</s>	0
<ans>	0
</ans>	0
▁	-2.43416
▁کے	-3.23975
▁میں	-3.56133
▁کی	-3.6239
▁،	-3.65144
؟	-3.98541
▁اور	-4.13811
▁سے	-4.20483
▁ہے	-4.30843
▁کو	-4.3109
▁کیا	-4.37556
▁کا	-4.39041
▁نے	-4.42336
▁پر	-4.45321
▁ایک	-4.80581
▁اس	-5.12929
▁کس	-5.15289
▁تھا	-5.16957
▁لئے	-5.23317
▁ہے۔	-5.23921
▁طور	-5.29964
▁ہیں	-5.41705
▁گیا	-5.44274
)	-5.45669
▁جو	-5.58788
وں	-5.59097
▁(	-5.60199
▁کرنے	-5.65336
▁ساتھ	-5.65799
▁کون	-5.72486
▁کہ	-5.79492
▁جس	-5.81137
▁جاتا	-5.83738
▁زیادہ	-5.85684
ی	-5.98346
▁سی	-6.0673
▁سب	-6.07473
▁ہیں۔	-6.07673
▁تک	-6.12675
▁تھا۔	-6.14998
▁بعد	-6.15563
▁یہ	-6.17011
▁استعمال	-6.17399
▁تھی	-6.20947
س	-6.21651
ز	-6.22134
▁یا	-6.31355
▁بھی	-6.31722
▁ان	-6.33584
▁نام	-6.38899
▁سال	-6.42236
▁سا	-6.43621
▁دیا	-6.47598
۔	-6.48987
▁نہیں	-6.50127
▁تھے	-6.5105
،	-6.53805
▁والے	-6.55418
▁کرتا	-6.59163
▁کرتے	-6.5953
▁شامل	-6.59747
▁پہلے	-6.60357
▁ڈی	-6.60409
▁کر	-6.60956
▁وہ	-6.63143
▁اپنے	-6.6349
▁کم	-6.66606
ا	-6.69743
▁ہوا	-6.69832
▁شہر	-6.69962
▁ذریعہ	-6.70379
▁گئی	-6.74695
ر	-6.75802
▁دی	-6.77411
▁عام	-6.77837
ن	-6.78515
▁بہت	-6.78629
▁کب	-6.79927
▁آف	-6.80554
▁دوران	-6.81556
▁ہونے	-6.82598
▁کیا۔	-6.82751
▁کہا	-6.84395
و	-6.84492
▁بی	-6.86554
▁جب	-6.86886
▁کتنے	-6.90788
▁طرح	-6.92017
ک	-6.92482
▁غیر	-6.93354
نگ	-6.93641
م	-6.9504
▁کچھ	-6.95171
▁شروع	-6.95328
▁حاصل	-6.96747
▁دو	-6.97096
▁اے	-6.97362
ل	-6.98051
▁صدی	-6.99586
▁ہوئے	-7.00406
▁جنگ	-7.00807
ڈ	-7.01853
▁پی	-7.02362
▁ایس	-7.03033
▁قسم	-7.04962
▁لیکن	-7.05271
ہ	-7.05615
▁اپنی	-7.06328
▁کام	-7.0687
▁وقت	-7.08411
▁جیسے	-7.09426
▁ہوتا	-7.10568
▁اہم	-7.10949
▁طرف	-7.11284
▁امریکی	-7.11319
▁وجہ	-7.13756
یں	-7.14119
▁کہاں	-7.14493
▁ہی	-7.15852
-	-7.17885
٪	-7.17985
▁دور	-7.18524
ے	-7.1875
▁آئی	-7.19089
▁تیار	-7.19107
▁والی	-7.19151
▁و	-7.20038
:	-7.2111
▁تقریبا	-7.22134
▁تھی۔	-7.22504
▁ای	-7.22853
▁نیو	-7.23048
▁ویں	-7.24397
ٹ	-7.25899
▁تھے۔	-7.26339
▁اسے	-7.27152
ت	-7.27175
▁تر	-7.28064
▁ہوئی	-7.29053
▁بن	-7.30604
▁حکومت	-7.31
▁آبادی	-7.31139
نا	-7.31827
▁حصہ	-7.3228
▁پیش	-7.33119
▁کرنا	-7.33595
▁پہلی	-7.34536
▁بار	-7.34897
▁بڑے	-7.35149
▁متحدہ	-7.3649
▁گئے	-7.37443
▁تعمیر	-7.40043
▁ایم	-7.40568
▁ٹی	-7.40813
▁کرتی	-7.40817
▁بارے	-7.40866
▁جانا	-7.40996
▁جاتی	-7.42302
▁صرف	-7.4259
▁تو	-7.43283
▁مختلف	-7.43577
ری	-7.43792
▁دہائی	-7.4394
▁جاری	-7.44119
▁کتنی	-7.44131
▁بنیادی	-7.44143
▁امریکہ	-7.44542
s	-7.4496
▁آر	-7.45345
▁کی۔	-7.45352
▁ملک	-7.45433
▁-	-7.45513
▁ہوتی	-7.45785
▁دنیا	-7.45793
پ	-7.46438
ون	-7.46479
▁ہر	-7.46833
▁زبان	-7.46857
یا	-7.47904
▁این	-7.48249
ف	-7.49102
▁جن	-7.49872
▁دیگر	-7.50029
▁دوسرے	-7.50086
ش	-7.50894
▁قائم	-7.52183
▁پیدا	-7.52238
▁واقع	-7.52477
▁تمام	-7.52763
▁کسی	-7.54091
▁بڑی	-7.55509
▁پہلا	-7.55607
▁گروپ	-7.56005
▁خلاف	-7.57004
▁وی	-7.59855
▁ایل	-7.60202
▁شمالی	-7.60272
▁اب	-7.60624
▁اسکول	-7.60753
▁ملین	-7.60899
▁جسے	-7.61003
▁یونیورسٹی	-7.6111
▁لوگوں	-7.61121
▁مطابق	-7.61578
▁ابتدائی	-7.61614
▁جبکہ	-7.61952
ان	-7.62047
▁درمیان	-7.62142
▁کیے	-7.63456
▁کردیا	-7.63511
▁ہوتے	-7.64237
▁قانون	-7.646
▁ایف	-7.6463
▁تشکیل	-7.64943
▁ریاست	-7.64986
▁ریاستہائے	-7.64996
گ	-7.65919
لی	-7.66481
▁ہو	-7.67918
سی	-7.67975
ب	-7.68981
▁ترقی	-7.69981
▁سلطنت	-7.70064
▁شدہ	-7.70375
▁یو	-7.70636
▁17	-7.70784
ات	-7.71101
▁خاص	-7.72166
▁نظام	-7.72301
▁18	-7.72697
▁برطانیہ	-7.72836
▁عمل	-7.73017
▁جان	-7.73298
▁جی	-7.73582
▁درجہ	-7.737
▁علاقے	-7.7455
چ	-7.74733
▁تین	-7.74834
▁بڑا	-7.75186
ین	-7.75248
▁۔	-7.75751
▁بنیاد	-7.7582
▁لی	-7.76278
▁او	-7.76686
▁فیصد	-7.76823
▁مقامی	-7.76874
▁مابین	-7.76882
▁تاریخ	-7.77037
▁پیمانے	-7.77592
سٹ	-7.7762
▁والا	-7.77863
▁مغربی	-7.78186
▁دوسری	-7.78727
▁دینے	-7.79136
▁کتنا	-7.79329
د	-7.80011
▁ختم	-7.80057
▁دونوں	-7.80424
تا	-7.80648
▁برطانوی	-7.80702
▁فراہم	-7.80791
▁اصل	-7.81048
▁مکمل	-7.81221
▁پاس	-7.81256
▁تبدیل	-7.81635
▁بال	-7.81866
نے	-7.81924
▁اکثر	-7.82145
▁جنوبی	-7.82353
▁انہوں	-7.82717
▁ذریعے	-7.83086
▁سرکاری	-7.83088
▁علاقوں	-7.83715
▁دوبارہ	-7.85435
▁مشرقی	-7.85974
▁علاوہ	-7.8608
▁قابل	-7.86209
▁کیونکہ	-7.86729
▁چرچ	-7.87317
▁صدر	-7.87321
▁سمجھا	-7.87373
1	-7.87627
▁جانے	-7.87629
▁3	-7.88394
▁جدید	-7.8871
▁کار	-7.88785
▁بندی	-7.89657
▁رہا	-7.90087
▁نئے	-7.90107
▁فرانسیسی	-7.90112
▁اعلی	-7.90509
▁گیا۔	-7.90566
▁کمپنی	-7.90809
▁تحت	-7.90847
▁بین	-7.91124
▁جگہ	-7.91161
▁چیز	-7.91202
▁اجازت	-7.91255
▁سکتا	-7.91256
▁حصے	-7.91391
▁جرمن	-7.91517
▁فٹ	-7.91716
▁2	-7.92134
▁مشہور	-7.92351
ٹر	-7.92601
▁کن	-7.93126
▁مین	-7.93193
ج	-7.93344
ائی	-7.93669
▁جہاں	-7.93742
نی	-7.94074
▁کردہ	-7.94104
4	-7.94217
▁لے	-7.94251
▁گھر	-7.94839
▁موسم	-7.95067
e	-7.95087
▁فی	-7.95336
▁آخر	-7.95535
▁کنٹرول	-7.95764
▁مدد	-7.96976
▁زمین	-7.97378
ق	-7.9746
▁چین	-7.97488
▁یورپی	-7.97821
▁ممالک	-7.9787
▁دن	-7.98044
▁آغاز	-7.98674
▁کوئی	-7.98751
▁سسٹم	-7.98821
▁خود	-7.98962
▁خیال	-8.00235
▁سٹی	-8.00633
رو	-8.00655
▁مثال	-8.00879
را	-8.0098
"	-8.01171
▁نتیجے	-8.0135
ور	-8.01579
▁کوشش	-8.0166
ٹی	-8.01883
▁سطح	-8.01967
▁تقسیم	-8.02182
▁لیگ	-8.02516
▁ہم	-8.0253
▁15	-8.0271
▁16	-8.03048
▁ریکارڈ	-8.03128
▁اعلان	-8.03251
▁میل	-8.04638
▁تعلیم	-8.04821
▁ڈالر	-8.04832
▁قدیم	-8.05026
▁اصطلاح	-8.05209
▁ضرورت	-8.05424
▁یونین	-8.0559
▁یونانی	-8.05967
▁بنایا	-8.061
تھ	-8.06231
▁فوج	-8.06241
▁عظیم	-8.06449
i	-8.06618
▁سیاسی	-8.0687
▁یارک	-8.0693
▁فلم	-8.07084
▁کبھی	-8.07248
تی	-8.0731
▁انگریزی	-8.07812
▁بیان	-8.07909
▁لوگ	-8.07966
▁حمایت	-8.08856
▁مسیح	-8.08892
▁موسیقی	-8.08969
▁خاندان	-8.09386
▁فرانس	-8.09567
▁منتقل	-8.10083
▁سینٹ	-8.10089
a	-8.1012
▁تاہم	-8.10329
▁سیزن	-8.10373
▁قریب	-8.10457
▁اندر	-8.10457
▁اثر	-8.10532
▁"	-8.1069
ٹا	-8.10769
▁فوجی	-8.10779
▁لیا	-8.10791
▁10	-8.10871
▁بنانے	-8.11193
▁تعداد	-8.11322
ع	-8.11612
▁وسیع	-8.11656
▁اینڈ	-8.11707
▁رنگ	-8.11712
▁لندن	-8.11823
▁دیا۔	-8.12092
▁جا	-8.12577
▁حیثیت	-8.12916
▁کئی	-8.13176
▁مقابلے	-8.13255
▁نئی	-8.13516
▁شکل	-8.13924
▁ڈیزائن	-8.13936
▁افراد	-8.14279
▁معاہدے	-8.14364
ار	-8.14371
▁وسطی	-8.14394
▁20	-8.14507
▁جاسکتا	-8.14536
▁کردار	-8.14634
▁1	-8.14858
▁فروخت	-8.1488
▁موجود	-8.15045
وا	-8.15468
▁زندگی	-8.15486
▁چار	-8.16445
▁رکھا	-8.16574
▁جنوب	-8.16921
▁گا	-8.16957
▁کل	-8.17528
2	-8.17678
▁کمی	-8.17904
▁قومی	-8.18609
▁مبنی	-8.1866
ول	-8.18802
▁موت	-8.19392
کس	-8.19487
▁قبل	-8.1956
▁الاقوامی	-8.19921
▁ہوائی	-8.19986
وس	-8.20243
▁نسل	-8.2057
▁ویسٹ	-8.20708
▁طاقت	-8.20799
ح	-8.21271
▁یورپ	-8.21427
'	-8.21573
وی	-8.21623
ٹو	-8.2184
y	-8.22185
اس	-8.22799
▁جاتے	-8.22806
بی	-8.23249
▁لیے	-8.23841
▁مرکز	-8.24125
▁رہے	-8.2414
▁/	-8.24243
▁الگ	-8.24426
▁متاثر	-8.24434
▁لائن	-8.24688
▁لینڈ	-8.2506
نٹ	-8.25133
▁رومن	-8.25236
▁آخری	-8.26237
▁بادشاہ	-8.2626
▁م	-8.26299
کی	-8.26393
▁میٹر	-8.26452
▁نظر	-8.26566
▁عوامی	-8.26645
▁پارٹی	-8.26816
▁بات	-8.2689
ال	-8.27349
رز	-8.27631
▁پانی	-8.28346
.	-8.28497
▁انہیں	-8.28637
▁پارک	-8.28802
▁ہوا۔	-8.2887
▁توانائی	-8.29131
0	-8.29206
یو	-8.2929
▁5	-8.2934
▁12	-8.29422
سن	-8.29556
؛	-8.29593
▁مشتمل	-8.29629
▁کھیل	-8.29932
▁شائع	-8.3013
▁مل	-8.30241
تے	-8.30573
▁چینی	-8.30726
▁حملہ	-8.31167
▁نو	-8.31358
▁ایچ	-8.31445
▁شمال	-8.32018
بر	-8.32087
▁انسانی	-8.32361
▁تھیں	-8.3247
▁اپنا	-8.32936
▁نیشنل	-8.33087
▁جائے	-8.33261
▁وضاحت	-8.33294
▁ٹیلی	-8.33422
▁ظاہر	-8.33777
▁مطلب	-8.33814
o	-8.33819
▁لا	-8.33844
▁اضافہ	-8.33918
▁جنرل	-8.33929
▁پرجاتیوں	-8.34493
▁مشرق	-8.34508
▁ال	-8.34744
لو	-8.35238
▁عمر	-8.35394
ڈو	-8.35641
ٹن	-8.35815
n	-8.36084
▁2010	-8.36129
▁مقصد	-8.36454
▁حالانکہ	-8.36786
▁برقرار	-8.37098
▁جمہوریہ	-8.37109
▁کالج	-8.37165
▁موجودہ	-8.37263
▁ہاؤس	-8.37341
▁فن	-8.37778
▁مرکزی	-8.37921
▁کلومیٹر	-8.37964
▁اسٹیشن	-8.38146
▁حکمرانی	-8.38489
▁پانچ	-8.38503
▁قبضہ	-8.38508
▁مذہبی	-8.3859
▁حوالہ	-8.38617
▁روم	-8.38838
▁روایتی	-8.38935
▁بھر	-8.38981
یت	-8.39215
▁جزیرے	-8.39385
ڈی	-8.39535
▁انگلینڈ	-8.39939
▁14	-8.40097
u	-8.40132
▁واحد	-8.40493
▁سوویت	-8.41359
▁سر	-8.41387
▁قیادت	-8.41501
▁آزاد	-8.41615
▁6	-8.41636
▁4	-8.41762
کا	-8.42213
لا	-8.42221
▁بے	-8.42306
▁اگر	-8.42546
▁بجائے	-8.42747
من	-8.42808
▁دیتا	-8.43534
▁کونسل	-8.43694
t	-8.43934
▁11	-8.44411
▁مئی	-8.44499
نس	-8.44582
▁پھر	-8.44708
▁آزادی	-8.44785
5	-8.44817
▁باہر	-8.44822
▁پیرس	-8.45026
m	-8.4515
▁مارچ	-8.45232
▁واپس	-8.45276
▁طلباء	-8.45403
▁رکھنے	-8.45527
ٹس	-8.45573
▁شکار	-8.45613
▁ٹیم	-8.45804
▁ہائی	-8.46014
▁13	-8.46028
▁مطالعہ	-8.46108
▁خدمات	-8.46226
▁شو	-8.46274
g	-8.46278
ما	-8.46313
ڈر	-8.46488
▁دار	-8.46561
▁وکٹوریہ	-8.47293
▁ستمبر	-8.47296
▁سکتے	-8.47414
▁19	-8.47525
یشن	-8.47836
▁کتاب	-8.47919
▁8	-8.47926
▁منتخب	-8.48011
▁ادا	-8.4803
▁خواتین	-8.48132
▁رکھی	-8.48269
▁ہسپانوی	-8.48924
A	-8.49311
l	-8.49386
▁2011	-8.49463
پی	-8.49484
▁مار	-8.49578
▁تاریخی	-8.49752
▁2008	-8.4996
▁روسی	-8.5015
c	-8.50251
▁سالوں	-8.50447
کو	-8.50458
▁جون	-8.50977
▁شہنشاہ	-8.5106
▁بدھ	-8.51199
▁اوائل	-8.5132
▁اگرچہ	-8.51378
▁میوزک	-8.51682
▁کیسے	-8.51701
▁متعدد	-8.51806
▁بل	-8.51837
▁ملکہ	-8.51926
▁ہندوستان	-8.52007
▁مغرب	-8.52562
▁چھ	-8.52576
▁حد	-8.53073
▁نہ	-8.53206
▁وزیر	-8.53445
▁2007	-8.53447
▁رہی	-8.53852
▁متعارف	-8.5395
▁نقصان	-8.54033
7	-8.54177
▁قانونی	-8.54207
▁دوسرا	-8.54462
▁دریافت	-8.54462
▁جمع	-8.5447
▁آپ	-8.54814
▁دیتے	-8.54866
▁لفظ	-8.55246
p	-8.55263
▁لکھا	-8.55277
▁نسلی	-8.55301
▁میک	-8.55451
▁افریقی	-8.55621
▁اسی	-8.55883
▁جنوری	-8.56043
▁پروگرام	-8.56068
▁شہری	-8.56103
6	-8.5619
▁ری	-8.56398
▁نمبر	-8.56402
▁بغیر	-8.56402
▁ذمہ	-8.56533
▁تاکہ	-8.56664
▁بند	-8.5667
▁7	-8.56927
▁نقطہ	-8.57189
▁2013	-8.57197
کر	-8.57434
▁انداز	-8.575
▁روشنی	-8.57769
▁بولی	-8.57827
▁2009	-8.57854
▁مواد	-8.57855
▁کلب	-8.57866
▁چھوڑ	-8.57943
▁مقام	-8.57955
▁ایئر	-8.58019
▁قرار	-8.58115
ئی	-8.58157
▁بیل	-8.58236
▁تجویز	-8.58248
▁وفاقی	-8.58248
▁اوسط	-8.58248
▁شکست	-8.58514
▁جرمنی	-8.58594
زم	-8.5878
▁C	-8.59178
▁لڑائی	-8.59192
▁نمائندگی	-8.59587
▁خصوصیات	-8.59758
اں	-8.60181
▁سینٹر	-8.60211
▁شوپن	-8.60264
▁حصوں	-8.604
▁طویل	-8.604
00	-8.60542
▁گی	-8.60617
▁شرح	-8.60809
▁تجارتی	-8.60984
▁سو	-8.6104
3	-8.61094
▁علاقہ	-8.61219
▁دے	-8.61233
▁دارالحکومت	-8.61356
▁طریقہ	-8.61493
▁مقابلہ	-8.61769
▁ورک	-8.61817
▁چھوٹے	-8.61907
▁2014	-8.62057
▁آج	-8.62107
▁ثقافت	-8.62223
▁تعلقات	-8.62358
▁کینیڈا	-8.62461
▁اختیار	-8.62555
▁کیوں	-8.62724
▁کیتھولک	-8.62738
▁جیسا	-8.62912
▁مر	-8.63087
می	-8.63218
▁مذہب	-8.63331
▁شناخت	-8.63437
▁جہاز	-8.64054
▁بچوں	-8.64589
▁اکتوبر	-8.64706
▁پایا	-8.64712
▁دیکھا	-8.64755
جی	-8.64769
▁مقبول	-8.64825
▁معاشی	-8.65231
▁انتخاب	-8.65271
▁اپریل	-8.65563
▁خطے	-8.65591
▁تنظیم	-8.65899
▁منسلک	-8.66136
▁رہتے	-8.66142
▁2012	-8.66145
خ	-8.66306
▁کاؤنٹی	-8.66389
▁مشترکہ	-8.66864
▁سفر	-8.67166
▁اختتام	-8.67294
▁ریاستوں	-8.67296
▁نمایاں	-8.67296
سل	-8.67545
▁اینٹی	-8.67569
▁ہیون	-8.67719
▁لکڑی	-8.67732
کن	-8.67834
▁بو	-8.67861
▁مزید	-8.67879
▁قدرتی	-8.67885
▁جولائی	-8.6832
▁اگست	-8.68467
I	-8.6849
▁نظریہ	-8.68632
▁آئین	-8.68668
▁حملے	-8.68796
▁گئی۔	-8.69358
▁اسٹریٹ	-8.69359
▁دسمبر	-8.69652
▁فری	-8.69757
▁خدا	-8.70105
▁شہروں	-8.70111
▁نیٹ	-8.70187
▁فتح	-8.70552
▁بورڈ	-8.70653
k	-8.71033
▁گر	-8.71065
▁مالی	-8.7128
پا	-8.7135
▁کردیا۔	-8.71442
▁فیصلہ	-8.71458
▁تحریک	-8.71547
▁ذکر	-8.71611
یوں	-8.71668
▁انجام	-8.71763
▁ایکٹ	-8.71826
▁دی۔	-8.71902
▁توجہ	-8.71915
▁ورلڈ	-8.71919
گو	-8.71984
▁منعقد	-8.72136
▁تصور	-8.72169
▁متعلق	-8.72289
▁افریقہ	-8.72374
▁مجموعی	-8.72726
▁معیار	-8.72853
▁افواج	-8.72989
9	-8.73083
▁رکھتا	-8.73152
▁آرٹ	-8.73243
▁مارکیٹ	-8.73368
▁معیاری	-8.73544
▁والوں	-8.73625
▁مضبوط	-8.73828
▁راست	-8.73861
گا	-8.74119
▁روس	-8.74196
▁خدمت	-8.7423
▁شادی	-8.74231
▁ریاستی	-8.7433
▁پال	-8.74383
▁بغاوت	-8.74386
▁ناصر	-8.74386
▁پتہ	-8.74387
▁کامیابی	-8.74395
▁سان	-8.74532
▁آیا	-8.7459
▁جین	-8.74635
▁مت	-8.74764
▁براہ	-8.75016
▁یونان	-8.75226
]	-8.75304
▁عرصے	-8.75329
▁کلاسیکی	-8.75487
▁سفید	-8.75645
▁2006	-8.75652
,	-8.75658
▁سائنس	-8.75749
▁پیداوار	-8.75977
▁ویژن	-8.7628
▁سالانہ	-8.76355
▁محدود	-8.7644
فی	-8.76479
▁شخص	-8.76577
▁سروس	-8.76631
گر	-8.76678
▁اپ	-8.7674
▁سبب	-8.76784
▁بنا	-8.76834
▁عالمی	-8.76934
▁کرکے	-8.76951
▁2015	-8.77022
▁البم	-8.77383
▁داخل	-8.77404
▁مدت	-8.77641
▁جارج	-8.77838
یم	-8.77838
▁ٹو	-8.77846
وم	-8.77889
al	-8.78208
▁میکسیکو	-8.78212
▁ممکنہ	-8.78293
▁'	-8.78361
▁توسیع	-8.78374
8	-8.78485
▁پسند	-8.78898
▁دفاع	-8.78945
ڑ	-8.79263
▁تبدیلی	-8.79453
▁ماڈل	-8.7949
▁اتحاد	-8.79752
▁زندہ	-8.7985
▁مختصر	-8.79866
▁یہودی	-8.79908
▁انقلاب	-8.79923
ص	-8.79949
▁حرارت	-8.8018
▁کیڑے	-8.80182
▁بہتر	-8.80324
رین	-8.80355
▁نومبر	-8.80512
▁تعلق	-8.80968
کل	-8.80974
▁فوجیوں	-8.81124
دی	-8.81134
▁سیاہ	-8.81238
▁آس	-8.81378
مین	-8.8144
▁خصوصی	-8.81905
▁(19	-8.82095
▁پیچھے	-8.82189
/	-8.82212
▁راک	-8.82291
یل	-8.82297
▁سائٹ	-8.82322
▁ڈچ	-8.82432
▁وے	-8.82445
▁تعریف	-8.82527
وک	-8.82566
▁دستخط	-8.82697
z	-8.82772
▁محفوظ	-8.82867
▁نپولین	-8.82867
▁جاپان	-8.83121
▁بڑھ	-8.83169
S	-8.83256
▁پولیس	-8.83447
▁ہجرت	-8.8355
▁کرے	-8.83751
▁شاہی	-8.83773
▁اوپر	-8.83788
▁حقوق	-8.83894
▁پوپ	-8.83963
▁علم	-8.84142
▁S	-8.84186
▁معیشت	-8.84411
▁ترین	-8.84487
▁مصر	-8.84555
▁منصوبہ	-8.84757
▁رکھتے	-8.84763
▁اسکولوں	-8.84812
▁نقل	-8.84931
اؤ	-8.84937
▁A	-8.84954
رک	-8.84989
اب	-8.85006
▁قیمت	-8.85074
▁قرون	-8.85106
▁جانوروں	-8.85297
f	-8.85423
▁ویڈیو	-8.85605
▁انتخابات	-8.85683
▁ثقافتی	-8.85759
▁آہستہ	-8.85803
▁سمندری	-8.85828
▁مستقل	-8.85979
▁بیس	-8.8599
en	-8.86307
▁صلاحیت	-8.86315
▁دیر	-8.86451
▁چاہئے	-8.86534
in	-8.86646
▁تیزی	-8.86675
▁مربع	-8.86684
▁ریڈیو	-8.86708
▁گھروں	-8.86721
▁تھیٹر	-8.86815
▁تسلیم	-8.87038
▁فورس	-8.87044
▁گرد	-8.87324
▁آلات	-8.87407
▁2005	-8.87587
▁دستیاب	-8.87683
▁وسط	-8.87686
▁رپورٹ	-8.87733
h	-8.87811
▁پودوں	-8.87929
▁2000	-8.88157
▁معاشرتی	-8.88288
▁میوزیم	-8.88288
▁لگایا	-8.88312
▁بینڈ	-8.88521
▁تھیں۔	-8.8855
▁نجی	-8.88671
▁لاطینی	-8.88717
▁اوکلاہوما	-8.89009
▁جزائر	-8.89009
▁جزیرہ	-8.89191
▁سامنا	-8.89192
▁نافذ	-8.89372
▁نتیجہ	-8.89372
▁25	-8.89399
رس	-8.89541
▁بالآخر	-8.89736
▁کامیاب	-8.89909
d	-8.902
▁تباہ	-8.90202
انا	-8.90247
▁انتظام	-8.90395
▁گا۔	-8.90427
▁سکتی	-8.90476
بو	-8.90588
▁معاہدہ	-8.90652
▁کاری	-8.90676
اک	-8.90685
▁بلین	-8.90735
▁پورے	-8.91023
▁آمدنی	-8.91033
▁عرب	-8.91269
▁جسم	-8.91275
سا	-8.91282
▁اعظم	-8.91391
▁سابق	-8.91492
▁نیا	-8.91516
▁لو	-8.91741
▁ورژن	-8.91762
▁گئیں	-8.92027
▁ساحل	-8.92077
ڈا	-8.92211
▁لینے	-8.92301
▁جنہوں	-8.92323
چی	-8.92538
مو	-8.92778
▁قبول	-8.92862
▁صحت	-8.92884
▁منظم	-8.92884
▁فروری	-8.9289
▁سابقہ	-8.92916
پر	-8.92928
▁ہونا	-8.93116
▁قوم	-8.93212
▁بیک	-8.9322
▁بہترین	-8.93291
▁خصوصیت	-8.9334
▁ہیڈ	-8.93378
▁کورٹ	-8.93479
▁کیں	-8.93556
سٹر	-8.93742
ائ	-8.93798
جو	-8.93809
▁دریا	-8.93816
▁فام	-8.93851
▁مخصوص	-8.9421
▁یہاں	-8.94312
▁تجارت	-8.94347
▁کانگریس	-8.94403
▁ڈیل	-8.94559
▁جے	-8.9461
▁چلتا	-8.94791
▁اول	-8.94846
▁از	-8.94874
▁تخلیق	-8.94922
نز	-8.95047
▁رہنما	-8.95145
▁باوجود	-8.95168
▁مقامات	-8.95425
▁کھیلوں	-8.95489
▁یافتہ	-8.95554
▁مرکوز	-8.95554
مر	-8.95953
▁ڈیم	-8.96072
▁عملی	-8.96235
▁جنسی	-8.96265
▁کافی	-8.96305
▁M	-8.96433
le	-8.96513
▁میڈیا	-8.96551
▁30	-8.96572
▁جواب	-8.96588
▁زبانوں	-8.96797
▁ہال	-8.96829
▁ضروری	-8.96871
▁ڈیٹا	-8.96878
با	-8.96943
▁ملکی	-8.96984
شی	-8.97028
er	-8.97071
▁اقوام	-8.97112
C	-8.97171
▁ٹیوٹ	-8.97244
انی	-8.9741
▁مسترد	-8.97702
▁گھریلو	-8.97712
or	-8.97722
▁بوسٹن	-8.97912
▁اندرونی	-8.97915
▁جیت	-8.98094
▁سرخ	-8.98129
▁اکثریت	-8.98171
▁آن	-8.98266
▁باقی	-8.98451
ra	-8.98456
▁اسٹیٹ	-8.98465
▁°	-8.98484
▁نیچے	-8.98546
▁آئیڈل	-8.98548
▁می	-8.98653
▁ریلوے	-8.98695
وٹ	-8.98794
▁جاپانی	-8.98811
▁جنگی	-8.9886
▁کمپیوٹر	-8.99096
r	-8.99101
▁پالیسی	-8.99135
▁دورہ	-8.99249
es	-8.99331
▁اطالوی	-8.99373
شن	-8.99426
▁رہنے	-8.99518
▁گئے۔	-8.99646
▁واضح	-8.99696
ar	-8.99739
ch	-8.99953
▁زیر	-8.99997
▁طریقوں	-9.001
▁عدالت	-9.00218
▁امریکن	-9.00303
▁ووٹ	-9.00348
▁وائٹ	-9.00353
▁سن	-9.00492
▁سامنے	-9.00506
▁پرانے	-9.00823
▁فیلڈ	-9.00869
▁آب	-9.01033
سک	-9.0106
la	-9.01211
▁فعال	-9.01321
▁وابستہ	-9.01526
▁کھانے	-9.01533
▁آباد	-9.01655
▁گورنر	-9.01734
▁ذیلی	-9.01767
▁پل	-9.01944
▁انسٹی	-9.02017
▁آواز	-9.02072
▁پوسٹ	-9.02147
▁اداروں	-9.02153
▁ملی	-9.02236
▁برعکس	-9.0235
▁تنازعہ	-9.0235
▁عائد	-9.0235
▁قوانین	-9.02557
▁مقرر	-9.02679
▁انتہائی	-9.02766
▁مجبور	-9.02972
▁شماری	-9.0318
▁1990	-9.0319
▁الفاظ	-9.03389
▁مہم	-9.03464
▁عیسائی	-9.03579
▁کوڈ	-9.03677
us	-9.03705
50	-9.03787
▁قتل	-9.03808
▁سیریز	-9.03811
▁رائل	-9.03884
▁فروغ	-9.04018
re	-9.04021
▁ریڈ	-9.04409
L	-9.04577
سو	-9.04578
▁ایشن	-9.04646
▁کھو	-9.04683
▁آسٹریلیا	-9.04844
▁لحاظ	-9.04863
▁ہندوستانی	-9.04947
جس	-9.04972
ٹین	-9.05004
▁رفتار	-9.05077
▁ایسٹونیا	-9.05288
▁بجلی	-9.05288
▁ایسوسی	-9.05289
▁منظور	-9.0547
▁حروف	-9.05501
▁اڈے	-9.05504
▁حل	-9.05534
بل	-9.05595
E	-9.05608
ط	-9.05635
▁ٹیکس	-9.05751
▁ویئر	-9.05823
یہ	-9.06059
▁ہوگئی	-9.0642
▁فائدہ	-9.06574
▁1970	-9.068
▁24	-9.07183
▁عمارت	-9.07211
▁فارم	-9.07362
▁جنس	-9.07413
▁پوڈ	-9.07414
▁آنے	-9.07557
برگ	-9.07588
▁بولنے	-9.07668
یس	-9.07822
▁سمیت	-9.07892
▁حکم	-9.08023
▁فرق	-9.08027
▁I	-9.08192
▁ٹاپ	-9.08363
b	-9.08446
▁9	-9.08459
▁G	-9.08571
▁کریں	-9.08668
▁تنقید	-9.0874
0،000	-9.08746
▁آرڈر	-9.08866
▁حق	-9.08983
▁ولیم	-9.09029
▁ترجمہ	-9.09197
▁پائے	-9.09199
▁2004	-9.09215
▁سمندر	-9.09241
پو	-9.09341
▁نصف	-9.09419
▁ہیوسٹن	-9.0942
▁واشنگٹن	-9.09641
▁سرحد	-9.09696
▁ملکیت	-9.09806
▁ارد	-9.09927
گن	-9.10182
▁کرایا	-9.1022
▁اشرافیہ	-9.10311
▁پارلیمنٹ	-9.10311
▁صارفین	-9.10325
▁مسائل	-9.10535
▁ایسٹ	-9.1066
▁مارشل	-9.10765
▁جلد	-9.10846
▁تلاش	-9.10985
▁نشاندہی	-9.10985
▁کیرولائنا	-9.10985
an	-9.11116
▁پابندی	-9.11133
▁ٹائمز	-9.1115
▁میدان	-9.11295
▁سیل	-9.11472
▁مردوں	-9.11505
▁ناکام	-9.11798
▁ہاور	-9.11808
▁??	-9.11891
▁طریقے	-9.11891
▁سپریم	-9.11906
▁مردم	-9.11968
on	-9.1205
▁شمسی	-9.12124
▁دیئے	-9.1223
O	-9.12643
▁وان	-9.1265
▁گرما	-9.12748
▁کیری	-9.1278
▁پوزیشن	-9.12805
ڈن	-9.12809
▁ایونیو	-9.12811
▁عثمانی	-9.12844
▁سیٹ	-9.12851
▁درخواست	-9.13035
▁ممبروں	-9.13117
w	-9.13234
▁ہوئی۔	-9.13284
▁متبادل	-9.13496
▁100	-9.13593
▁ڈو	-9.13645
▁ساؤتھمپٹن	-9.13728
▁بندرگاہ	-9.13823
نڈ	-9.13897
▁حیاتیات	-9.13945
▁لانچ	-9.1396
▁سائز	-9.14031
▁رہائش	-9.14163
▁دہلی	-9.14218
▁F	-9.14232
▁21	-9.1436
▁مصنوعات	-9.14428
جن	-9.145
▁ڈگری	-9.1466
▁ڈبلیو	-9.14669
▁پیشہ	-9.1471
▁انکار	-9.14773
▁مشعل	-9.14894
▁گانے	-9.15004
▁علاقائی	-9.15128
▁مقیم	-9.15128
▁قریبی	-9.15232
▁اینٹینا	-9.15243
▁واقعات	-9.15354
▁براعظم	-9.15364
▁آئزن	-9.15365
▁بیونسے	-9.15396
▁کمانڈ	-9.15407
▁ہوئے۔	-9.15465
▁ایپل	-9.15648
▁پیدائش	-9.15745
▁ترک	-9.15784
▁سرمایہ	-9.15845
▁کپ	-9.15883
نو	-9.161
زی	-9.16101
▁بیئر	-9.16164
▁رسوخ	-9.1631
ئے	-9.16334
▁جیمز	-9.16334
▁سپر	-9.16355
▁گرینڈ	-9.165
▁اسرائیل	-9.16652
وری	-9.16717
▁نمائش	-9.16787
▁ہوگئے	-9.16877
▁باضابطہ	-9.17026
▁آئرلینڈ	-9.17266
▁تحقیق	-9.17383
▁کارکردگی	-9.17507
▁اٹلی	-9.17512
▁بحری	-9.17677
▁ام	-9.17865
▁والد	-9.18132
▁صنعت	-9.18145
▁نوٹ	-9.18156
▁لہذا	-9.18231
▁یہودیوں	-9.18286
▁مقدار	-9.18474
▁انٹرنیٹ	-9.18478
▁معلومات	-9.18505
▁اضافی	-9.18717
▁گرجا	-9.18733
▁وار	-9.18934
▁نارتھ	-9.18961
▁چھوٹی	-9.18961
▁ییل	-9.19011
▁سازی	-9.19031
غ	-9.19132
.5	-9.19242
▁جسمانی	-9.19265
▁لائبریری	-9.19451
▁آگے	-9.19516
▁سائنسی	-9.19585
▁بیکٹیریا	-9.19696
▁سخت	-9.19697
▁آسٹریا	-9.19697
▁P	-9.19722
▁تعلیمی	-9.1973
▁کور	-9.19803
▁صوتی	-9.19819
▁کوریا	-9.19881
▁گلی	-9.19934
▁ترتیب	-9.19943
▁حقیقت	-9.2019
▁حوصلہ	-9.2019
▁دماغ	-9.2019
▁بنائے	-9.20206
▁بارش	-9.20288
▁ڈسک	-9.20309
▁اسلامی	-9.20584
▁روشن	-9.20602
▁ایجاد	-9.20688
▁کیے۔	-9.20696
گی	-9.20732
▁چیف	-9.20837
▁زلزلے	-9.20934
▁کرسکتے	-9.20934
▁ووڈ	-9.20974
▁شمار	-9.21181
▁عنوان	-9.21389
▁میڈونا	-9.21433
▁ماہر	-9.21471
▁اسپین	-9.21486
یئر	-9.22285
▁مو	-9.22337
▁روک	-9.22368
ٹیک	-9.22373
▁وطن	-9.2244
▁منظوری	-9.22477
▁آ	-9.22735
▁قیام	-9.23201
▁آئے	-9.23338
▁عیسوی	-9.23456
▁ہوسکتا	-9.23456
▁کمیونٹی	-9.23514
▁گروہوں	-9.236
▁پو	-9.23621
وف	-9.23636
▁الزام	-9.23667
▁زور	-9.23693
▁تبت	-9.23781
20	-9.23788
▁مسلسل	-9.23968
B	-9.24138
▁R	-9.24308
▁H	-9.2432
▁گرم	-9.2441
▁ویل	-9.24474
▁عروج	-9.24483
▁پرندوں	-9.24483
▁رات	-9.24567
▁ایکس	-9.24619
▁ڈھانچے	-9.24742
▁اسٹیڈیم	-9.24742
▁40	-9.24949
▁سول	-9.24974
▁قذافی	-9.25001
▁سیٹلائٹ	-9.25001
▁الیکٹرک	-9.25032
▁میزبانی	-9.25116
▁پرتگالی	-9.25446
▁ایسا	-9.25451
▁شراکت	-9.25521
M	-9.25602
▁کیمپس	-9.25622
▁دیتی	-9.2564
فر	-9.25714
▁فار	-9.25799
▁تیز	-9.25862
▁گے	-9.25926
▁ٹاؤن	-9.26044
▁پرتگال	-9.26363
▁آرتھوڈوکس	-9.26569
▁ڈیجیٹل	-9.26571
▁پائی	-9.26583
▁بڑھتی	-9.26618
▁بیرونی	-9.26663
40	-9.2677
▁گیم	-9.26828
▁استدلال	-9.26833
▁تیسری	-9.26842
وز	-9.26862
ائڈ	-9.27302
▁پورٹ	-9.27325
▁پہنچ	-9.27346
▁ڈیٹرائٹ	-9.27363
▁آرمینیائی	-9.27377
جیسے	-9.27378
▁1980	-9.27382
▁خانہ	-9.27402
▁پڑا	-9.27522
P	-9.27532
▁تجربہ	-9.27629
▁پھیل	-9.27635
▁پار	-9.27742
▁سات	-9.27783
▁کارروائی	-9.27794
▁نانجنگ	-9.27896
▁ایگزیکٹو	-9.28163
st	-9.28269
ٹری	-9.28703
▁پولی	-9.28862
▁ڈویژن	-9.2887
▁کاموں	-9.2889
▁سوئٹزرلینڈ	-9.28969
N	-9.29061
▁معاملات	-9.2924
▁لگانے	-9.29267
▁بیماری	-9.2933
▁گرین	-9.29368
▁رسائی	-9.29515
▁تیل	-9.29615
▁ممبر	-9.29638
▁بڑھا	-9.29786
▁روایت	-9.2981
▁کلاس	-9.29836
▁بچے	-9.29847
▁ریکارڈنگ	-9.29855
▁E	-9.29878
▁اثرات	-9.29929
▁دس	-9.30025
چر	-9.30031
▁گیس	-9.30034
▁علاج	-9.30055
ہا	-9.30126
▁داری	-9.30195
▁نامزد	-9.30317
▁اوقات	-9.30328
▁ٹائم	-9.30357
رن	-9.30394
ri	-9.30584
▁ہوم	-9.30609
▁ہار	-9.30613
اد	-9.30791
▁فون	-9.30796
▁منتقلی	-9.30871
▁چارلس	-9.30874
▁عنصر	-9.30877
▁زون	-9.30985
▁کتے	-9.31176
▁تانبے	-9.31429
▁ضلع	-9.31429
▁طالب	-9.31429
▁کرسکتا	-9.31429
▁فریڈرک	-9.31429
وب	-9.31449
▁منگ	-9.3145
یڈ	-9.31456
▁انحصار	-9.31706
▁رو	-9.31735
▁نشان	-9.31854
مس	-9.31893
▁اگلے	-9.31986
▁آٹھ	-9.31989
▁1960	-9.31997
▁ٹور	-9.32176
▁ذاتی	-9.32295
▁بحران	-9.323
R	-9.32311
▁دباؤ	-9.32542
▁بشمول	-9.32558
▁البرٹ	-9.32562
li	-9.3258
▁آگ	-9.3264
▁K	-9.32706
▁روڈ	-9.32772
▁اقسام	-9.32821
▁مواصلات	-9.32821
اف	-9.32837
▁افزائی	-9.33384
is	-9.33509
▁مرکب	-9.33622
▁50	-9.33647
▁ماحولیاتی	-9.33715
▁مرد	-9.33717
▁یونٹ	-9.33887
▁اطلاع	-9.3395
▁ایران	-9.3399
▁بنائی	-9.33993
ڈل	-9.34199
x	-9.34234
▁حالیہ	-9.34243
▁اصلاحات	-9.34281
در	-9.34283
▁پلے	-9.34345
ڈین	-9.34354
▁پہنچا	-9.3446
▁فلسفہ	-9.34519
▁2003	-9.34539
▁قرض	-9.34647
▁گروپوں	-9.34708
▁ہوسکتی	-9.34804
▁نما	-9.34827
یز	-9.3499
▁بری	-9.34999
▁رہائشی	-9.35312
▁سافٹ	-9.35455
لین	-9.35495
▁صومالی	-9.35582
یک	-9.35629
▁سماجی	-9.35666
▁ہدایت	-9.35666
▁دعویٰ	-9.35668
▁پاور	-9.35678
▁کھانا	-9.35685
▁زی	-9.35868
▁سالہ	-9.35898
▁حالت	-9.35927
▁اجزاء	-9.35956
▁اظہار	-9.35956
▁اعداد	-9.35956
▁صنف	-9.35956
▁ملتی	-9.36048
-1	-9.36099
ونگ	-9.36168
▁سربراہ	-9.36242
▁آؤٹ	-9.36245
▁بیونسی	-9.36376
نک	-9.36499
▁انٹر	-9.36673
▁فل	-9.36677
▁شپ	-9.36802
جا	-9.36942
▁نائیجیریا	-9.3712
▁میلبورن	-9.37124
▁الحال	-9.37413
▁رقم	-9.37413
▁فیڈرل	-9.37418
80	-9.37522
D	-9.37577
▁سامان	-9.37664
ارڈ	-9.37681
▁قواعد	-9.37707
▁محل	-9.37708
▁بننے	-9.37721
▁موجودگی	-9.37743
▁مشین	-9.38076
▁ملا	-9.38083
جر	-9.38136
.1	-9.38193
▁حکمران	-9.38282
▁مال	-9.38286
▁فراہمی	-9.38295
▁اتفاق	-9.38298
▁توقع	-9.38298
▁چی	-9.38354
▁ایڈ	-9.38528
▁ماحول	-9.38892
▁اچھی	-9.38893
▁عدم	-9.38893
ھ	-9.38897
فورڈ	-9.38903
▁ہلاک	-9.38911
ro	-9.39157
▁پرست	-9.39163
▁اسمبلی	-9.39191
▁آرمی	-9.39243
ta	-9.39445
▁کاغذ	-9.39446
▁پلائیماؤتھ	-9.39491
▁اپنایا	-9.39501
▁ورزی	-9.39507
▁پروٹسٹنٹ	-9.39772
▁یورینیم	-9.39791
▁ہان	-9.40016
▁شی	-9.40065
▁حقیقی	-9.40092
▁مظاہرہ	-9.40103
▁ڈال	-9.40115
▁گو	-9.40122
▁میچ	-9.40152
▁دیکھ	-9.40368
▁2001	-9.40455
▁فارمیٹ	-9.40514
▁کراس	-9.40545
▁لیا۔	-9.40639
ض	-9.40681
▁پیٹنٹ	-9.40722
▁پسندی	-9.40843
▁غلط	-9.40868
▁ہوں	-9.40905
▁شدید	-9.41001
▁رکاوٹ	-9.41001
▁نظریات	-9.41061
▁بٹ	-9.41143
▁کمیٹی	-9.41165
▁ترمیم	-9.41306
ویل	-9.41318
▁ہمیشہ	-9.41612
▁پن	-9.41623
.6	-9.41659
▁T	-9.41691
▁ٹیسٹ	-9.41767
پس	-9.41889
▁کاروبار	-9.41981
ام	-9.42047
▁جہازوں	-9.42106
▁گئیں۔	-9.42165
▁گانا	-9.42166
▁فین	-9.42188
.7	-9.42199
▁تارکین	-9.42228
▁1950	-9.42257
▁جینیاتی	-9.4227
انگ	-9.42293
▁کھولا	-9.42316
▁بشپ	-9.42329
▁مجموعہ	-9.42535
▁چلنے	-9.42546
▁حفاظت	-9.42598
یگ	-9.42773
▁اسکاٹ	-9.42852
▁ونڈوز	-9.42871
▁چو	-9.42895
▁خشک	-9.43155
▁کمزور	-9.43177
▁میں۔	-9.43191
▁معمولی	-9.43253
▁23	-9.43281
▁صنعتی	-9.43415
شا	-9.43415
▁مزاحیہ	-9.43466
▁ادارہ	-9.43481
پل	-9.43606
▁اٹلانٹک	-9.43779
▁بچ	-9.44034
ئ	-9.44037
▁خاتمے	-9.44092
▁طوفان	-9.44092
▁مور	-9.44374
▁انسانوں	-9.44391
▁روکنے	-9.44455
▁عناصر	-9.44722
▁ملاقات	-9.44722
▁چیک	-9.44761
▁حمل	-9.4483
▁مزاحمت	-9.44897
لینڈ	-9.44947
.4	-9.4495
▁میٹروپولیٹن	-9.45039
▁وجود	-9.45039
▁میگزین	-9.4504
▁لائٹ	-9.45068
▁شیل	-9.45216
▁ویب	-9.45344
▁آڈیو	-9.45356
▁شاید	-9.45357
ہن	-9.45359
▁میامی	-9.45365
v	-9.45481
30	-9.45513
▁موٹر	-9.45531
▁بھیجا	-9.45612
▁مارک	-9.45649
▁برونکس	-9.45686
لز	-9.45723
کھ	-9.45926
.2	-9.45947
▁تصویر	-9.45994
▁تربیت	-9.45998
▁ٹکسن	-9.46
ولا	-9.46056
▁بینک	-9.46217
▁شہریوں	-9.4622
▁تعین	-9.46301
شین	-9.46308
▁ٹینیسی	-9.46316
▁پتھر	-9.46317
▁رکھتی	-9.46329
▁N	-9.46469
▁دفتر	-9.46636
▁موثر	-9.46636
▁نتائج	-9.46636
▁پین	-9.46681
▁مریم	-9.46688
▁کنسرٹ	-9.46959
▁زنک	-9.46987
▁مصری	-9.46995
▁رینج	-9.47029
سر	-9.4722
▁مصنف	-9.47239
▁برک	-9.47257
▁شکاری	-9.47267
▁اقتدار	-9.47283
▁تعاون	-9.47283
at	-9.47295
▁کنگ	-9.47443
▁سنگل	-9.4746
▁خیالات	-9.47476
انو	-9.47567
▁جذبات	-9.47606
▁انیسویں	-9.47607
▁بلکہ	-9.47607
▁اونچائی	-9.47616
▁ہوگئے۔	-9.4781
▁رکن	-9.47869
▁بلیک	-9.47991
▁بناتا	-9.48016
ئر	-9.48156
▁دعوی	-9.48258
▁امن	-9.48285
▁کپاس	-9.48297
یکس	-9.48413
دا	-9.48457
▁ہارڈ	-9.48471
▁عمارتوں	-9.48488
▁پھانسی	-9.48588
.3	-9.48603
▁ملازمت	-9.48607
▁سرما	-9.48676
▁میئر	-9.48805
▁امریکیوں	-9.48903
▁منصوبے	-9.48917
▁پیچیدہ	-9.48917
th	-9.48918
▁لہر	-9.4893
یر	-9.48964
لیٹ	-9.48981
زا	-9.49029
▁جزوی	-9.49078
14	-9.49187
▁جیسی	-9.49201
▁خ	-9.49216
it	-9.49238
▁غلبہ	-9.49247
اٹ	-9.49382
▁پہاڑی	-9.49383
▁تحفظ	-9.49445
▁چیت	-9.49561
▁سوسائٹی	-9.49578
▁علیحدگی	-9.49578
▁ٹکنالوجی	-9.49578
▁فنکاروں	-9.49694
▁پوری	-9.49709
▁اخبار	-9.49779
▁فضائی	-9.49827
نر	-9.49869
▁الزبتھ	-9.4991
▁شرکت	-9.4991
▁ہٹ	-9.49927
▁وال	-9.49938
▁دولت	-9.49943
▁ڈیاگو	-9.49977
دار	-9.50208
▁نوجوان	-9.50209
▁احتجاج	-9.50243
▁سیئٹل	-9.50243
▁ہوسکتے	-9.50243
▁یونیورسل	-9.50243
▁رہتا	-9.50267
▁پولینڈ	-9.50272
▁B	-9.50362
▁جانور	-9.50403
▁رجحان	-9.50414
▁اہمیت	-9.50491
▁لوئس	-9.5059
▁دریائے	-9.50596
▁آلہ	-9.50633
▁اسٹور	-9.5066
▁با	-9.50733
▁دوم	-9.50759
ٹم	-9.50841
▁مشکل	-9.50913
▁معاشرے	-9.50913
▁رابرٹ	-9.50916
▁حالات	-9.50952
ne	-9.51026
از	-9.51044
▁متن	-9.51115
▁نگرانی	-9.5125
▁سورج	-9.51275
لن	-9.51469
ur	-9.51511
▁چاہئے۔	-9.51536
▁گوئی	-9.51615
▁ہنری	-9.51656
▁مخالف	-9.51813
▁گاہ	-9.5182
▁ہوگئی۔	-9.51823
▁بادشاہی	-9.51845
▁مالک	-9.51868
▁جذب	-9.51875
▁فیسٹیول	-9.51927
▁برف	-9.5193
▁28	-9.5196
▁بڑھانے	-9.5199
▁26	-9.52116
▁فہرست	-9.52267
▁لیبیا	-9.52308
▁بم	-9.52568
200	-9.52577
▁ڈائی	-9.52596
▁رد	-9.52603
▁مقدس	-9.52608
▁ادارے	-9.52609
▁رشتہ	-9.52609
▁ایڈورڈ	-9.52613
▁دلچسپی	-9.52627
گل	-9.52629
▁بناتے	-9.52662
▁پیروی	-9.52671
▁پاپ	-9.52681
▁والدہ	-9.52732
▁کیریئر	-9.5277
▁سوچ	-9.52846
انے	-9.52847
▁ٹریک	-9.5295
▁الاسکا	-9.52951
▁2002	-9.52987
وین	-9.52997
.9	-9.53224
▁جاسکتی	-9.53294
▁کاتالان	-9.53294
اتی	-9.53363
▁قبرص	-9.53381
▁چنگ	-9.53449
▁آپریشن	-9.53582
▁سبز	-9.53632
▁مینڈولین	-9.53639
▁لمبائی	-9.53646
▁طے	-9.5365
ریٹ	-9.5368
▁لاگو	-9.53703
▁اولمپک	-9.53787
▁لکھی	-9.53816
▁ہل	-9.5388
▁انٹرنیشنل	-9.53985
▁مستحکم	-9.53985
▁ڈائریکٹر	-9.53985
▁کینے	-9.53993
▁سرگرمی	-9.54002
ائٹ	-9.5418
▁بحالی	-9.54181
▁موضوع	-9.54191
▁پریمیئر	-9.54333
▁تصدیق	-9.54681
▁اڈہ	-9.54681
▁پبلک	-9.54687
▁دل	-9.54702
▁حملوں	-9.54738
▁ادب	-9.54789
لون	-9.54825
▁(18	-9.54877
▁بحر	-9.5495
▁اصول	-9.55012
▁آرمینیا	-9.55018
▁ذرائع	-9.55031
18	-9.55082
▁پب	-9.55132
▁پلیٹ	-9.55185
▁راستے	-9.55199
▁22	-9.55261
64	-9.55322
▁غالب	-9.55381
▁مند	-9.55426
▁پورا	-9.55466
▁فوٹو	-9.55478
انہ	-9.55493
▁گے۔	-9.55582
▁خط	-9.55654
▁اشاعت	-9.55733
▁مثبت	-9.55733
▁شیشے	-9.55734
▁III	-9.55745
▁ایسی	-9.55781
ٹنگ	-9.55863
T	-9.55964
▁تھامس	-9.56018
▁باعث	-9.56087
▁بھاری	-9.56091
▁کردی	-9.56093
▁چند	-9.56107
▁لایا	-9.56146
▁کمیشن	-9.56162
▁تاج	-9.56173
▁ترجیح	-9.56195
▁نیز	-9.56222
▁چلا	-9.56453
▁عوام	-9.56459
ائن	-9.56623
وڈ	-9.56751
نج	-9.56756
▁مسئلہ	-9.56797
▁انفرادی	-9.56804
▁ماہرین	-9.56874
▁ملتا	-9.56947
▁60	-9.56968
▁متعلقہ	-9.56994
▁وقف	-9.5708
ؤں	-9.57139
▁ڈارون	-9.5716
▁کاپی	-9.57196
▁بانی	-9.57229
▁انتظامیہ	-9.57234
▁حکمت	-9.57269
▁لیبل	-9.57428
آ	-9.57481
▁موزیک	-9.57502
▁مسلح	-9.57513
▁مشن	-9.57516
▁پریس	-9.576
▁ہائیک	-9.57674
▁بارسلونا	-9.57873
▁پیمائش	-9.57873
▁کارپوریشن	-9.57873
▁چیمپئن	-9.58034
▁شام	-9.58102
▁علامت	-9.58147
▁مطالبہ	-9.58234
▁درد	-9.58241
▁یورو	-9.58265
65	-9.58281
um	-9.58435
▁اسکور	-9.58475
▁امکان	-9.58475
▁واقعہ	-9.58532
▁پول	-9.5857
▁ایشیاء	-9.58598
▁نشریات	-9.58598
وان	-9.58612
▁وو	-9.58699
▁فوری	-9.5871
34	-9.58833
▁کمانڈر	-9.58897
▁صوبے	-9.5896
▁معاصر	-9.5896
ڈس	-9.59006
▁یونیورسٹیوں	-9.5906
▁انچ	-9.59129
32	-9.59201
▁عارضی	-9.59325
▁منحصر	-9.59325
▁منظر	-9.59325
▁ڈیپارٹمنٹ	-9.59325
▁ہائیڈروجن	-9.5933
▁سزا	-9.59334
▁چارٹر	-9.59415
ارا	-9.59552
▁ہتھیار	-9.59689
▁کثیر	-9.59691
▁سگنل	-9.59691
▁نشر	-9.59696
▁کالونی	-9.59707
▁ہوٹل	-9.59738
▁ایوارڈ	-9.59866
▁آسان	-9.59919
▁تکنیکی	-9.60039
▁یقین	-9.60085
▁بالغ	-9.60118
▁برن	-9.60288
-19	-9.60386
▁چونکہ	-9.60427
▁تیسرا	-9.60435
▁سمت	-9.60497
▁ہٹا	-9.6059
او	-9.60658
F	-9.60728
▁تخمینہ	-9.60798
▁یسوع	-9.60798
▁آرسنل	-9.60798
▁نسبتا	-9.60824
▁ریلیز	-9.60908
ic	-9.61033
▁درمیانی	-9.61096
el	-9.61155
▁اضافے	-9.6117
▁اعزاز	-9.6117
▁بحیرہ	-9.6117
▁غور	-9.61174
▁ایشیائی	-9.61182
▁حدود	-9.61186
▁ریلے	-9.61249
▁ریپبلکن	-9.61302
▁اندازہ	-9.61408
▁سم	-9.615
▁وہاں	-9.61529
▁خطرے	-9.61543
▁کتوں	-9.61543
▁شراب	-9.61544
▁ما	-9.61694
مان	-9.61698
▁کمپنیوں	-9.61701
▁ریکارڈز	-9.6176
ئن	-9.61802
▁اسٹ	-9.61826
ٹل	-9.61853
▁خواہش	-9.61917
▁رچمنڈ	-9.61917
▁فلوریڈا	-9.61917
▁شکاگو	-9.61918
▁مخالفت	-9.61995
▁ایسے	-9.62157
اری	-9.62177
▁پذیر	-9.62293
▁وادی	-9.62329
▁خارج	-9.62586
کار	-9.62642
▁ماخوذ	-9.62671
▁پچھلے	-9.62671
▁عکاسی	-9.62707
▁ممبران	-9.62738
منٹ	-9.62752
▁یاد	-9.62755
78	-9.62949
▁غلاموں	-9.6299
▁حیدرآباد	-9.63049
▁عقیدے	-9.63049
▁ماسٹر	-9.63221
.0	-9.63316
▁اشارہ	-9.6343
▁ور	-9.63437
▁پولش	-9.63489
ٹک	-9.63503
ia	-9.6381
▁باشندوں	-9.63811
▁حتمی	-9.63811
▁گنی	-9.63826
▁برما	-9.63832
زو	-9.63861
▁جاسکے۔	-9.63923
▁بس	-9.63969
▁زبانیں	-9.64118
▁آئرش	-9.64194
▁شعبے	-9.64194
▁معنی	-9.64194
▁لبرل	-9.64195
▁برابر	-9.64202
▁حیاتیاتی	-9.64219
▁لنک	-9.64335
▁آئینی	-9.64477
▁ماہ	-9.64602
▁(2	-9.64604
▁ٹری	-9.64637
▁وین	-9.64644
▁شکلوں	-9.64695
▁فو	-9.64909
▁زمینی	-9.64917
▁احاطہ	-9.64965
▁ادویات	-9.64965
▁دوسروں	-9.64966
os	-9.64989
▁پیٹر	-9.65079
99	-9.65091
▁انسان	-9.65108
▁تبدیلیوں	-9.65169
▁سائیکل	-9.65258
▁گارڈ	-9.65316
▁ضم	-9.6532
ٹیل	-9.65341
▁مخفف	-9.65353
▁آٹھویں	-9.65353
▁تخت	-9.65353
95	-9.65485
▁حال	-9.65629
as	-9.65724
اور	-9.65728
▁قرآن	-9.65742
▁موازنہ	-9.65742
▁گھنٹے	-9.65742
▁1940	-9.65774
▁کانفرنس	-9.66035
▁بعض	-9.66132
▁پروجیکٹ	-9.66132
مب	-9.66209
▁خراب	-9.66302
چا	-9.66413
▁خیالی	-9.66636
te	-9.66846
▁فائنل	-9.66892
▁مرحلے	-9.66918
▁ہزار	-9.66945
▁شاخ	-9.67265
لے	-9.67266
▁محمد	-9.67314
▁معاہدوں	-9.67314
▁کنونشن	-9.67314
▁جھیل	-9.67315
▁ہتھیاروں	-9.67315
▁قبائل	-9.67372
زر	-9.67399
▁کھیلا	-9.67399
▁دان	-9.6747
▁سنبھال	-9.67549
▁تیسرے	-9.6771
▁نیپچون	-9.6771
▁ہسپتال	-9.6771
▁اقدامات	-9.67734
الی	-9.67761
▁ریس	-9.67827
فا	-9.67844
▁آرٹسٹ	-9.67882
25	-9.67986
73	-9.68064
▁بحث	-9.68109
▁محسوس	-9.68109
17	-9.68238
▁آفس	-9.683
▁پہاڑوں	-9.6832
یٹ	-9.68379
▁بردار	-9.68511
▁طرز	-9.68513
▁80	-9.68571
لس	-9.68593
▁(1	-9.68757
لیس	-9.68777
مک	-9.68791
▁سنسکرت	-9.68806
▁فائر	-9.68816
ایک	-9.68861
▁اکیڈمی	-9.6891
▁تقریر	-9.6891
▁ثبوت	-9.6891
▁27	-9.68943
▁ایجنسی	-9.68944
▁لیبر	-9.68949
ریا	-9.68955
ہی	-9.69144
▁ہیلینا	-9.69351
▁کش	-9.6936
▁واٹر	-9.69412
یکل	-9.69684
▁چلانے	-9.69766
▁برازیل	-9.70069
▁اشیاء	-9.70125
▁تجزیہ	-9.70125
▁فاصلے	-9.70125
▁ہیڈکوارٹر	-9.70125
لر	-9.70145
وو	-9.70146
▁رائٹ	-9.70148
--	-9.70345
85	-9.70376
▁ممکن	-9.70449
▁مسلم	-9.70485
▁تناسب	-9.70533
▁مناسب	-9.70533
▁پرندے	-9.70533
▁بیٹے	-9.70539
▁گی۔	-9.70598
ni	-9.7073
▁کاروباری	-9.7086
▁فریم	-9.70889
▁چھوٹا	-9.70943
▁کمیونسٹ	-9.70984
ti	-9.7103
▁یقینی	-9.71325
▁ہوگا	-9.7135
▁جزیروں	-9.71355
▁جغرافیائی	-9.71355
▁مداخلت	-9.71355
H	-9.71616
▁V	-9.71696
▁خریدا	-9.71711
▁زرعی	-9.71768
▁فیصلے	-9.71768
▁جوہری	-9.71772
لٹ	-9.71774
▁سلوک	-9.71775
لڈ	-9.71787
رہ	-9.7187
ā	-9.72183
▁زراعت	-9.72183
▁مضامین	-9.72183
▁منافع	-9.72183
ائز	-9.72193
ونی	-9.72367
▁جانچ	-9.72497
▁90	-9.72534
▁تیاری	-9.72581
▁لباس	-9.72599
▁رویے	-9.726
10	-9.72638
▁اسٹار	-9.72644
▁اسلام	-9.72658
▁بک	-9.72668
▁ہیم	-9.72681
▁وائی	-9.72697
▁عیسائیت	-9.72739
▁ٹیکنالوجی	-9.72819
56	-9.72827
▁جم	-9.72927
▁سلسلے	-9.73018
▁شوارزنیگر	-9.73018
▁صحرا	-9.73018
▁بائبل	-9.73022
▁1991	-9.73038
▁دکھایا	-9.73045
ینٹ	-9.73133
▁لارڈ	-9.73267
پٹ	-9.73322
▁سیکیورٹی	-9.73438
▁پانچویں	-9.73438
رون	-9.73499
12	-9.73538
▁صومالیہ	-9.73561
▁مٹی	-9.73755
33	-9.73799
▁فر	-9.73806
ولوجی	-9.73839
▁باقاعدہ	-9.7386
▁ذخیرہ	-9.7386
▁وزارت	-9.7386
▁اختلافات	-9.73874
نیل	-9.73899
60	-9.73923
▁خون	-9.73927
▁گن	-9.74042
لنگ	-9.74052
▁تقریب	-9.74117
▁ٹاور	-9.7412
▁D	-9.74149
ہر	-9.74266
▁ساؤتھ	-9.74284
▁1930	-9.74312
▁پٹ	-9.74326
▁de	-9.74477
▁فلپ	-9.74514
▁لقب	-9.74709
▁میڈیکل	-9.74715
J	-9.74763
▁پنک	-9.74908
▁دیکھی	-9.75017
▁مون	-9.75069
سکی	-9.75125
▁ارکان	-9.75136
▁نائٹ	-9.75233
▁خاندانوں	-9.75349
▁تبتی	-9.75449
ئس	-9.75495
▁ٹرین	-9.75509
▁تبادلہ	-9.75566
▁مساوی	-9.75566
▁صدارتی	-9.75721
68	-9.75826
▁لائسنس	-9.75899
▁ہوگیا	-9.7593
▁لاس	-9.75966
X	-9.75997
▁سلسلہ	-9.75997
▁سوئس	-9.76017
▁سروے	-9.76022
▁لکھے	-9.7603
▁جینوم	-9.76041
▁ڈاکٹر	-9.76094
U	-9.76303
G	-9.76359
▁پڑتا	-9.76359
▁متحرک	-9.7643
▁بشریات	-9.7643
▁رہا۔	-9.76524
▁گریٹ	-9.76551
▁بحال	-9.76619
38	-9.7669
▁O	-9.7671
▁بہن	-9.76761
▁کوششوں	-9.76802
▁گیل	-9.76867
لک	-9.7691
▁سونے	-9.77031
▁غلام	-9.77125
▁آرٹس	-9.7713
ود	-9.77285
▁تحلیل	-9.77301
▁محکمہ	-9.77301
▁وجوہات	-9.77301
▁پرواز	-9.77321
▁واپسی	-9.77343
▁پری	-9.77686
▁70	-9.77729
▁اسپیلبرگ	-9.7774
▁رچرڈ	-9.7774
▁شہزادہ	-9.7774
▁طبقے	-9.7774
▁مختار	-9.7774
▁سلاو	-9.77741
▁خطرہ	-9.77747
▁نیوز	-9.77764
▁مصروف	-9.77765
▁فورسز	-9.77791
91	-9.77985
90	-9.78028
▁انڈیا	-9.78038
یکا	-9.78068
to	-9.78123
▁ہفتہ	-9.7818
▁ریزرو	-9.78181
▁U	-9.78247
59	-9.78263
▁ساز	-9.78433
▁عورت	-9.78623
▁منصوبوں	-9.78623
▁کیلنڈر	-9.78623
▁یادگار	-9.78626
▁35	-9.78674
▁امیر	-9.78689
▁درج	-9.78802
▁لگا	-9.78832
▁تشریح	-9.79067
▁حرکت	-9.79067
▁31	-9.79069
▁ورانہ	-9.7908
ng	-9.79086
▁باکس	-9.79111
وپ	-9.79136
بن	-9.79151
پور	-9.79154
▁نشانہ	-9.79203
ha	-9.79205
▁کان	-9.79281
▁تحقیقات	-9.79288
▁ڈے	-9.7931
▁نوآبادیاتی	-9.79316
▁پڑوس	-9.79345
▁ترکی	-9.79362
▁مہینے	-9.79514
▁1997	-9.79528
▁اٹھایا	-9.79549
▁والدین	-9.79598
▁ایبی	-9.79857
▁مہارت	-9.79962
▁وسائل	-9.79964
▁بھال	-9.79981
▁مالیاتی	-9.79984
▁ڈین	-9.80019
▁لیزر	-9.80019
▁گول	-9.80045
▁صدیوں	-9.80136
یسی	-9.80186
▁لفٹ	-9.80311
برٹ	-9.80319
▁جرائم	-9.80412
▁خالص	-9.80412
▁مستقبل	-9.80412
▁لاگت	-9.80413
▁ایڈیشن	-9.80448
▁آتا	-9.80489
▁روٹ	-9.80597
70	-9.8079
▁ممتاز	-9.80865
▁پروڈیوسر	-9.80865
▁مصنفین	-9.80926
▁جیتنے	-9.80954
▁کشی	-9.81064
▁اپیل	-9.81291
▁والنسیا	-9.8132
▁پناہ	-9.81325
▁الپس	-9.81357
▁کہانی	-9.81402
ائل	-9.8141
ھی	-9.81553
▁ایوارڈز	-9.81565
▁اسپ	-9.81628
▁ہزاروں	-9.81746
▁کہتے	-9.81789
▁لاج	-9.81835
▁انعام	-9.81867
سلی	-9.81902
▁ایٹ	-9.8191
▁ٹن	-9.81994
▁آہنگی	-9.82003
▁انٹارکٹیکا	-9.82235
▁عطیہ	-9.82235
▁روزانہ	-9.82241
▁پھیلاؤ	-9.82263
▁اخراجات	-9.82264
un	-9.82277
▁پرو	-9.82337
یون	-9.82353
88	-9.82634
▁برقی	-9.82696
▁مشاہدہ	-9.82696
▁اپولو	-9.82704
▁بنے	-9.82727
▁لوک	-9.82779
▁جنگوں	-9.82799
▁پلانٹ	-9.82855
▁دہ	-9.82902
na	-9.82992
▁متحد	-9.83074
نین	-9.83099
▁فاتح	-9.83114
▁ٹرانس	-9.8314
▁ارتقاء	-9.83159
▁تعدد	-9.83159
▁عقائد	-9.83159
▁مساوات	-9.83159
▁کیتھیڈرل	-9.83159
▁شیئر	-9.83181
▁خانے	-9.83221
▁پہلو	-9.83224
▁پہنچنے	-9.83226
48	-9.83271
▁دھ	-9.83322
▁کارل	-9.83328
▁ڈیوڈ	-9.83348
▁دوست	-9.83414
زن	-9.83465
▁اتحادی	-9.83478
58	-9.83542
▁مطالعے	-9.83624
▁مشق	-9.83624
▁رائے	-9.8367
▁تکنیک	-9.83748
ol	-9.8375
یکٹ	-9.83822
▁میٹرو	-9.83922
▁انسانیت	-9.83969
▁قابو	-9.84091
▁کثرت	-9.84091
▁نمودار	-9.84094
V	-9.84139
▁اسٹون	-9.84176
▁نامی	-9.84237
▁ہندو	-9.84256
▁لیون	-9.84404
مون	-9.84411
▁وصول	-9.84561
▁زوال	-9.84563
▁1920	-9.846
▁چارلسٹن	-9.84601
▁دائرہ	-9.84614
سٹی	-9.84647
▁خارجہ	-9.84666
▁سست	-9.84877
▁عربی	-9.84877
▁لیڈ	-9.8491
تر	-9.84946
ڈون	-9.85021
▁منسوخ	-9.85032
▁پودے	-9.85032
▁افسران	-9.85058
▁500	-9.85081
▁درجے	-9.85111
92	-9.85206
▁W	-9.85212
▁ناکامی	-9.85231
▁نوآبادیات	-9.85241
▁نیومن	-9.85328
▁ادبی	-9.8537
▁بادشاہت	-9.85374
▁ساتھ۔	-9.85383
▁چینل	-9.85446
▁پرانی	-9.85446
ٹز	-9.85453
▁اریٹیریا	-9.85506
▁ثابت	-9.85506
▁پاؤنڈ	-9.85506
▁بیسویں	-9.85507
79	-9.8551
▁1998	-9.85525
▁1999	-9.85532
▁آسٹریلیائی	-9.85548
▁بلڈنگ	-9.8555
▁ویسٹرن	-9.85555
▁خفیہ	-9.85982
▁نظم	-9.85982
▁ٹرمینل	-9.85982
▁سینڈ	-9.86048
▁دیہی	-9.86126
▁کاروں	-9.86143
▁راستہ	-9.86242
13	-9.86339
▁برمودا	-9.86461
▁لمبی	-9.86461
▁چاہتا	-9.86461
▁تعینات	-9.86481
▁بدعنوانی	-9.86521
▁انجینئرنگ	-9.86524
▁ڈالا	-9.86533
▁مثالیں	-9.86552
▁برادری	-9.86572
مپ	-9.86672
▁لیس	-9.86761
روں	-9.86788
▁کھلاڑیوں	-9.86828
▁چاہتے	-9.86942
▁سڑک	-9.86976
▁دیکھنے	-9.87003
nd	-9.87046
▁کھلاڑی	-9.87055
▁چوٹی	-9.87121
▁جیک	-9.87191
▁ایوان	-9.87212
▁تنظیموں	-9.87212
ma	-9.87329
▁پرستی	-9.87354
▁مندر	-9.87397
ذ	-9.87414
▁معروف	-9.87425
▁اسکوائر	-9.87425
▁وولٹیج	-9.87426
▁تجدید	-9.87426
▁1989	-9.87444
▁بانڈ	-9.87477
▁ایپلی	-9.87484
▁ڈرائیو	-9.87687
▁کینن	-9.87792
▁کیں۔	-9.87817
▁یوٹیوب	-9.8791
▁طاقتوں	-9.87917
▁بلب	-9.87921
▁گریڈ	-9.87926
▁ناول	-9.87941
▁جائزہ	-9.87947
▁درخت	-9.88028
▁امداد	-9.88152
▁تہذیب	-9.88398
▁نرم	-9.88593
▁رسم	-9.88691
▁بولیوں	-9.88789
▁سرد	-9.88827
▁درست	-9.88878
▁امپیریل	-9.88888
▁تسلسل	-9.88888
▁شمولیت	-9.88888
▁پروفیسر	-9.88888
▁ہفتے	-9.88888
▁منفی	-9.88894
▁روح	-9.88936
55	-9.88947
▁تعمیراتی	-9.88976
75	-9.88989
▁اختیارات	-9.89045
▁ریل	-9.89094
ینز	-9.89136
اج	-9.89195
▁ماہی	-9.89213
▁ڈا	-9.89252
▁مارا	-9.89285
▁اجلاس	-9.89381
▁کثافت	-9.89381
▁گرمی	-9.89437
ریس	-9.89485
▁میڈ	-9.89591
یئس	-9.89664
▁پوائنٹ	-9.89677
ce	-9.89832
▁سینیٹ	-9.89867
▁صورت	-9.89876
▁ناقابل	-9.89876
▁ٹریفک	-9.89876
▁کیمیائی	-9.89879
▁عہدے	-9.89913
▁بورو	-9.89946
گھ	-9.9004
se	-9.90076
نیا	-9.9014
▁اعتماد	-9.90373
▁باہمی	-9.90373
▁سہولت	-9.90373
▁شعبوں	-9.90373
▁ملوث	-9.90373
▁بہار	-9.90376
▁پرائمری	-9.90395
▁رومی	-9.90426
▁بلیو	-9.90448
دو	-9.9049
▁تہوار	-9.90503
86	-9.90728
▁پک	-9.90799
روس	-9.90829
▁ریاضی	-9.90866
▁کریڈٹ	-9.90874
▁پوپر	-9.90878
▁تابکاری	-9.90892
▁ہاتھ	-9.91012
▁عملے	-9.91027
▁ساخت	-9.91133
▁جزو	-9.91139
▁بش	-9.91202
▁لائنوں	-9.91305
▁ڈسٹرکٹ	-9.91376
▁سیچوان	-9.91376
شر	-9.91379
ٹیو	-9.91388
▁جیتا	-9.914
45	-9.91459
-2	-9.91509
▁جج	-9.9158
لہ	-9.91597
▁انقلابی	-9.91654
کٹ	-9.91714
▁سربراہی	-9.91802
▁آمد	-9.91846
▁الیگزینڈر	-9.91881
▁چیلنج	-9.91881
▁فاؤنڈیشن	-9.91887
▁انگریزوں	-9.91942
▁پروشین	-9.91955
▁جنم	-9.91959
▁ماس	-9.91986
اپ	-9.92093
▁فلموں	-9.92185
▁180	-9.92239
▁نکال	-9.9224
▁نوٹری	-9.92327
▁نور	-9.92374
▁روایات	-9.92388
▁کیلیفورنیا	-9.92388
▁گوتھک	-9.92389
▁کنارے	-9.92389
▁مفت	-9.924
▁ٹیٹو	-9.92459
▁وزن	-9.92519
▁دشمن	-9.92568
▁عمارتیں	-9.92573
▁سونی	-9.92718
▁جاسکے	-9.92749
▁احساس	-9.92899
▁تنوع	-9.92899
▁علیحدہ	-9.92899
▁پریسبیٹیرین	-9.92899
▁ڈیفنس	-9.92899
▁کنسول	-9.929
▁دیوتاؤں	-9.92904
▁بھائی	-9.93071
ای	-9.93101
▁الٹ	-9.93112
▁رسمی	-9.93162
▁ایونٹ	-9.93206
▁لین	-9.93211
ter	-9.93331
▁کہنا	-9.93397
▁موقع	-9.93411
▁دینا	-9.93461
▁پرفارم	-9.93495
▁فارسی	-9.93508
▁دھات	-9.93576
36	-9.93577
▁ٹریڈ	-9.93595
▁200	-9.9361
فیل	-9.93736
مور	-9.93741
مز	-9.93757
▁سلاوی	-9.93824
▁نیوزی	-9.93869
▁انضمام	-9.93927
▁نوعیت	-9.93927
▁بدلے	-9.9399
▁فورٹ	-9.94011
ing	-9.94038
▁لوڈ	-9.94103
واں	-9.94184
گرام	-9.94216
▁اقلیتی	-9.94255
▁پیٹ	-9.94395
▁جائیداد	-9.94445
▁ساتویں	-9.94445
▁کارنیول	-9.94445
▁بوجھ	-9.94462
▁مصنوعی	-9.94478
▁ٹیموں	-9.94551
بیری	-9.9459
▁جوزف	-9.94637
▁غلطی	-9.94672
▁دیوار	-9.94677
▁تباہی	-9.9468
ڈور	-9.94764
▁اسٹاف	-9.94814
▁نظریاتی	-9.94864
22	-9.94928
▁ایرانی	-9.94942
▁بااثر	-9.94966
▁بجٹ	-9.94966
▁تجربے	-9.94966
▁تفویض	-9.94966
▁زمانے	-9.94969
▁وارسا	-9.94996
▁بڑھتے	-9.95042
▁ہپ	-9.95052
▁دورے	-9.95098
▁45	-9.95099
▁چھٹی	-9.95112
▁سیکشن	-9.9518
▁پینٹ	-9.95192
ed	-9.95193
▁کانگو	-9.95287
no	-9.95373
▁پروگراموں	-9.95397
▁پیسیفک	-9.9549
▁ہنگری	-9.9549
▁قوت	-9.95491
▁پانے	-9.95512
▁29	-9.95587
▁بحریہ	-9.95692
39	-9.96015
Y	-9.96016
▁فلاڈیلفیا	-9.96016
▁لکھنے	-9.96037
▁سرگرمیوں	-9.96055
بہ	-9.96125
ٹھ	-9.96146
▁فائل	-9.96181
▁پھل	-9.96208
vi	-9.96234
▁مونٹی	-9.96307
ca	-9.96337
▁اسٹوڈیو	-9.96346
98	-9.96487
▁شکلیں	-9.96502
▁استعفیٰ	-9.96545
▁انفیکشن	-9.96545
▁بازنطینی	-9.96545
▁شہزادی	-9.96545
▁مسئلے	-9.96545
▁مطالعات	-9.96545
▁کپڑے	-9.96545
▁سیاست	-9.96546
j	-9.96721
ینی	-9.96802
▁آپریشنز	-9.96852
برا	-9.96937
امی	-9.97057
این	-9.97074
▁خاتمہ	-9.97077
▁لازمی	-9.97077
▁اوپیرا	-9.97079
▁میٹ	-9.97212
▁سادہ	-9.97234
si	-9.97256
▁مارول	-9.97258
▁الہیات	-9.97553
▁اتحادیوں	-9.97558
نیٹ	-9.97586
▁ورجینیا	-9.97612
▁II	-9.97642
▁پادری	-9.9778
▁دستاویز	-9.97859
▁پرنٹ	-9.98088
▁منٹ	-9.9814
▁رضامندی	-9.98149
▁خرچ	-9.98149
▁جنگلی	-9.98153
▁VI	-9.98156
▁دیں	-9.98178
▁انتظامی	-9.98245
▁کیمپ	-9.9826
ul	-9.98288
▁اوور	-9.98343
1,	-9.9846
رل	-9.98476
▁ثقافتوں	-9.98504
یری	-9.98544
▁بادشاہوں	-9.98581
69	-9.98585
جھ	-9.98592
▁a	-9.98671
▁بالترتیب	-9.9869
▁فطرت	-9.9869
▁ہدف	-9.9869
▁ریسرچ	-9.9869
▁نسلوں	-9.98702
▁رہنماؤں	-9.98709
▁کینیڈین	-9.98738
▁ٹیکساس	-9.98759
▁میری	-9.98784
▁طاقتور	-9.98888
▁مطابقت	-9.98896
▁لئے۔	-9.98996
▁پھیلا	-9.99107
ایا	-9.99173
▁حساب	-9.99233
▁مخلوط	-9.99233
▁سیکرٹری	-9.99233
▁اونچی	-9.99233
▁آٹو	-9.99301
▁خودمختاری	-9.99316
▁طبی	-9.99376
یور	-9.99379
▁گرفتار	-9.99423
▁بیونس	-9.99464
▁مسافروں	-9.99499
▁تحریری	-9.99586
89	-9.99628
▁اصطلاحات	-9.99636
▁رومیوں	-9.99726
▁شواہد	-9.9978
▁نظرانداز	-9.9978
▁نورفولک	-9.9978
▁کرسکتی	-9.9978
▁امید	-9.9979
▁کاربن	-9.9983
id	-9.99852
مل	-9.99915
▁روز	-9.99939
▁کلی	-9.99962
▁کیبل	-10
▁فرانسیسیوں	-10.0003
29	-10.0005
▁گولی	-10.0008
▁پروڈکشن	-10.0013
46	-10.0015
▁ماؤنٹ	-10.0026
▁درآمد	-10.0033
▁قبضے	-10.0033
▁پروٹین	-10.0035
▁لگتا	-10.0037
27	-10.0044
▁فیشن	-10.0045
▁معیارات	-10.0049
▁باس	-10.0055
▁پرنس	-10.0055
▁میزبان	-10.0064
▁زائرین	-10.0088
▁نچلے	-10.0088
▁پاکستان	-10.0088
رم	-10.0091
یف	-10.0092
شو	-10.0096
▁فنڈ	-10.012
دہ	-10.012
62	-10.0134
▁ہوئیں	-10.0136
▁لیک	-10.0141
▁تقرری	-10.0144
▁ردعمل	-10.0144
▁صحیح	-10.0144
▁صورتحال	-10.0144
▁نائب	-10.0144
▁یہوواہ	-10.0144
53	-10.0144
ائزیشن	-10.0146
▁شخصیت	-10.0152
▁مقبولیت	-10.0153
▁عہدیداروں	-10.0166
▁بہتری	-10.0174
▁کلبوں	-10.0187
▁باشندے	-10.02
▁وراثت	-10.02
▁محبت	-10.0201
▁ڈیوک	-10.0202
▁دستاویزات	-10.0204
▁بیجنگ	-10.0208
▁بیٹی	-10.0245
ئل	-10.025
▁ذخائر	-10.0256
▁عرفی	-10.0256
▁نصوص	-10.0256
▁ہفتوں	-10.0256
▁چارٹ	-10.0257
▁کتابوں	-10.0259
▁بچنے	-10.0263
▁بمباری	-10.027
▁ایو	-10.0274
▁دفاعی	-10.0284
▁غلامی	-10.0287
▁ہیرو	-10.0292
co	-10.0307
▁ٹرانسمیشن	-10.0312
▁تازہ	-10.0312
mi	-10.0317
▁رکھے	-10.0318
▁ایشیا	-10.0319
▁چلایا	-10.0321
▁مزدوری	-10.0322
▁کارکنوں	-10.0329
▁بیورو	-10.0336
▁لگ	-10.034
▁(4	-10.0342
▁اسرائیلی	-10.0344
ولی	-10.0368
▁ڈائ	-10.0368
▁ویلز	-10.0369
▁طیاروں	-10.0369
▁مقاصد	-10.0369
▁انڈسٹری	-10.0369
▁سوال	-10.0373
▁فورا	-10.0377
▁آبائی	-10.0379
کشن	-10.0386
▁ایریا	-10.0397
▁رن	-10.0416
▁معلوم	-10.0419
▁اسفالٹ	-10.0426
▁براؤن	-10.0426
▁تووالو	-10.0426
▁اسکالرز	-10.0436
▁عوامل	-10.0441
▁شکاریوں	-10.0443
▁بیٹا	-10.0445
▁سوچا	-10.0449
▁برلن	-10.0452
37	-10.0461
▁کارڈینل	-10.0464
▁چارج	-10.0466
▁ہیٹن	-10.0466
▁گری	-10.0472
▁لسانی	-10.0479
▁اتھارٹی	-10.0484
▁رابطے	-10.0484
▁عبادت	-10.0484
▁مراکز	-10.0484
ؤ	-10.0496
▁باقیات	-10.0497
▁عثمانیہ	-10.0505
▁تجرباتی	-10.0508
▁گرا	-10.051
▁(3	-10.0518
▁گنا	-10.0522
ورا	-10.0529
ں	-10.0532
▁بور	-10.0534
▁ادائیگی	-10.0541
▁استحکام	-10.0541
▁حوالے	-10.0541
▁طیارے	-10.0541
▁ویتنام	-10.0542
▁تغیرات	-10.0544
▁کورک	-10.0549
میٹ	-10.055
▁ریٹ	-10.0561
▁رہائشیوں	-10.0562
▁امیدوار	-10.0563
57	-10.0585
▁تنازعات	-10.06
▁نینٹینڈو	-10.06
▁کھٹمنڈو	-10.06
▁یوکرائن	-10.06
▁چوتھی	-10.06
▁خوردہ	-10.06
▁ٹائٹل	-10.06
K	-10.0601
et	-10.0605
▁آتی	-10.0607
▁فرنٹ	-10.0607
ph	-10.0609
ٹرن	-10.0621
▁کین	-10.0635
81	-10.0645
ینڈ	-10.0653
▁خاتون	-10.0658
▁مادہ	-10.0659
ہو	-10.066
▁سمجھتے	-10.066
▁کیشنز	-10.066
▁میسنری	-10.0661
▁ہانگ	-10.0669
▁آل	-10.0674
▁نسب	-10.0675
▁ڈبل	-10.0691
84	-10.0691
▁ٹیمیں	-10.0698
96	-10.0711
51	-10.0714
▁راؤنڈ	-10.0717
▁یوگوسلاویہ	-10.0717
▁1945	-10.0719
▁(5	-10.0728
▁منگول	-10.0739
▁خانقاہ	-10.0739
▁تجربات	-10.0751
▁کمیونٹیز	-10.0763
93	-10.0768
▁بخش	-10.0776
▁مائیکروسافٹ	-10.0776
▁ماضی	-10.0776
▁منشیات	-10.0776
▁مائکرو	-10.0777
▁مقناطیسی	-10.0783
▁ڈالنے	-10.0784
▁ہیل	-10.0793
▁سیاحت	-10.0812
▁لائی	-10.0813
▁یونانیوں	-10.0822
▁سیکنڈ	-10.083
▁تصاویر	-10.0836
▁مضمون	-10.0836
▁سیکھنے	-10.0836
▁بڑھایا	-10.0849
بیٹ	-10.086
فور	-10.086
▁ڈاک	-10.0877
hi	-10.0884
کیٹ	-10.0887
▁اجداد	-10.0896
▁اہداف	-10.0896
▁سامعین	-10.0896
▁قبیلے	-10.0896
▁چوتھے	-10.0896
▁میڈیسن	-10.0896
▁ایورٹن	-10.0896
il	-10.0897
▁گوام	-10.0898
▁1988	-10.0898
▁اصولوں	-10.0899
فٹ	-10.0917
▁بیماریوں	-10.0918
▁فلسفی	-10.0918
▁پیرا	-10.0919
ینا	-10.0929
63	-10.0935
▁رکھا۔	-10.0938
▁نیم	-10.0941
▁p	-10.0948
▁بمقابلہ	-10.0956
▁منفرد	-10.0956
▁بوٹ	-10.0956
19	-10.0958
▁رہتی	-10.0959
▁ڈیموکریٹک	-10.0959
▁مراد	-10.096
▁فرینک	-10.096
▁فرد	-10.0968
▁لائیو	-10.0971
▁پیانو	-10.0973
بون	-10.0973
▁جرمنوں	-10.0979
▁تال	-10.0984
,000	-10.0984
یچ	-10.0987
▁منی	-10.0996
▁عیسائیوں	-10.1002
▁ایسڈ	-10.1009
▁زد	-10.1011
ریج	-10.1016
...	-10.1016
▁نمک	-10.1018
▁1939	-10.1019
▁1979	-10.1019
سیس	-10.1021
▁لاک	-10.1023
ومی	-10.1034
▁ہوگیا۔	-10.1037
▁اسٹین	-10.1039
▁حریف	-10.104
▁پڑوسی	-10.1041
چو	-10.1044
▁مسلمانوں	-10.1046
▁حکومتوں	-10.1065
▁جدوجہد	-10.1077
▁شرائط	-10.1077
▁متنازعہ	-10.1077
▁مہینوں	-10.1077
▁کائنات	-10.1078
▁بولتے	-10.1079
▁مورخین	-10.108
▁ڈانس	-10.1081
▁خریداری	-10.1086
▁بالکل	-10.1092
▁افتتاح	-10.1114
سٹین	-10.1121
26	-10.1124
▁میموری	-10.1129
▁تصورات	-10.1132
83	-10.1137
▁بھ	-10.1138
▁تشخیص	-10.1139
▁ساؤنڈ	-10.1139
▁مبینہ	-10.1139
▁گوشت	-10.1139
▁کالونیوں	-10.1139
▁1994	-10.114
▁ٹائ	-10.1162
71	-10.1169
▁آہنگ	-10.117
ڈک	-10.1172
ونڈ	-10.1184
77	-10.1186
▁اصلاح	-10.119
▁مشورہ	-10.12
▁معاملے	-10.12
▁اہتمام	-10.12
▁طلب	-10.12
▁خلیج	-10.12
▁فلپائن	-10.1201
▁2016	-10.1203
▁پروٹو	-10.1207
سٹن	-10.121
▁بپٹسٹ	-10.1217
▁کرس	-10.1227
47	-10.1249
▁انکشاف	-10.1263
▁سفارش	-10.1263
▁صوبہ	-10.1263
▁لائف	-10.1263
▁گریجویٹ	-10.1263
ید	-10.1263
▁چھوڑنے	-10.1281
▁اسٹیشنوں	-10.1286
▁بنانا	-10.1312
Z	-10.1323
▁جانبدار	-10.1325
▁ریستوراں	-10.1325
▁1941	-10.1325
تقریبا	-10.1328
82	-10.1334
▁جذباتی	-10.1335
▁رول	-10.1335
▁اشکنازی	-10.135
▁جانشین	-10.1372
▁ابھر	-10.1386
▁فاکس	-10.1389
▁پرفارمنس	-10.1391
▁1995	-10.1391
▁کیڑوں	-10.1392
▁گیلری	-10.1397
▁ماں	-10.1404
▁برج	-10.1407
▁ازم	-10.1408
▁تار	-10.1409
یلا	-10.142
▁مونو	-10.1421
▁رنگین	-10.1422
35	-10.1441
▁+	-10.1441
▁گلوکار	-10.1443
▁1949	-10.1451
▁BYU	-10.1451
▁اولاد	-10.1454
▁فرش	-10.146
▁مائیکل	-10.1462
▁گیٹ	-10.1465
وکس	-10.1466
▁ہاپ	-10.1477
اے	-10.1478
▁آسانی	-10.1498
▁ہوگی	-10.15
ci	-10.1503
di	-10.1513
▁پڑھ	-10.1515
▁اطلاق	-10.1515
▁اعانت	-10.1515
▁بزنس	-10.1515
▁کمپریشن	-10.1515
▁یعنی	-10.1521
▁داخلہ	-10.1548
▁نیک	-10.1568
▁بدل	-10.1571
va	-10.1572
پٹن	-10.1576
▁دیوتا	-10.1578
▁لیبارٹری	-10.1579
▁مؤثر	-10.1579
▁ٹکڑے	-10.1579
▁منسٹر	-10.158
ھا	-10.1582
▁آتے	-10.1586
فو	-10.1589
72	-10.159
▁300	-10.1595
چھ	-10.1597
▁لیو	-10.1605
▁مدتی	-10.1612
▁کٹ	-10.1622
▁کھلا	-10.1622
▁سرکٹ	-10.1627
▁بلاک	-10.1636
5،000	-10.1636
▁باب	-10.1639
▁ابتدا	-10.1641
▁آثار	-10.1644
▁حکام	-10.1644
▁سماعت	-10.1644
▁طبیعیات	-10.1644
▁کنفیڈریشن	-10.1644
▁کولمبیا	-10.1644
▁میزائل	-10.1644
▁سوانح	-10.1645
▁خلائی	-10.1645
▁ایجنٹ	-10.1648
▁میس	-10.1654
16	-10.1655
▁سانٹا	-10.1657
▁ملتے	-10.166
▁حامی	-10.1672
▁جماعتوں	-10.1674
▁360	-10.1675
▁اوک	-10.1677
▁واقعے	-10.1683
▁سینٹی	-10.1694
▁1987	-10.1708
▁مواقع	-10.1708
▁بیڑے	-10.1708
▁اینگلو	-10.1709
▁چیئرمین	-10.1709
▁خالی	-10.171
▁1974	-10.1711
▁1992	-10.1711
▁سوم	-10.1718
▁گروہ	-10.1737
▁کھول	-10.1742
▁عبور	-10.1749
▁ڈور	-10.175
▁ہائ	-10.1755
▁الیکٹرانک	-10.1762
▁سین	-10.1766
▁احکامات	-10.1774
▁جمہوریت	-10.1779
▁ابھی	-10.1781
▁بائیوٹکس	-10.1782
▁مضافاتی	-10.1783
ٹوری	-10.1789
▁کول	-10.1792
▁ساحلی	-10.1794
بس	-10.1798
2)	-10.1798
ٹیم	-10.18
شیا	-10.1803
▁پابند	-10.1813
▁دہائیوں	-10.1813
W	-10.1815
▁ٹرسٹ	-10.1823
پورٹ	-10.1835
▁پلان	-10.1837
▁(20	-10.1837
▁ترغیب	-10.184
▁انٹیلی	-10.184
▁بتایا	-10.184
▁1996	-10.1842
▁پرت	-10.1842
▁آباؤ	-10.1844
▁اتنا	-10.1846
▁جیو	-10.1849
▁چھت	-10.1858
▁جائے۔	-10.1869
▁پھول	-10.1869
گین	-10.1873
▁انتخابی	-10.1887
▁جرم	-10.1888
21	-10.1898
▁رقص	-10.1906
▁نصب	-10.1906
▁تحقیقی	-10.1907
▁1969	-10.1908
▁لوتھر	-10.1909
▁کسانوں	-10.1909
▁اسٹاپ	-10.1911
▁فال	-10.1911
نیس	-10.1912
▁پینل	-10.1916
سٹا	-10.1918
سٹک	-10.1919
76	-10.1925
▁120	-10.193
▁اقلیت	-10.193
تھر	-10.1938
وسین	-10.1941
▁خرابی	-10.1944
▁کرلیا	-10.1958
▁گور	-10.1963
▁آرکسٹرا	-10.1972
▁میوزیکل	-10.1972
▁اسٹریٹجک	-10.1973
▁پروشیا	-10.1973
74	-10.1975
▁قیمتوں	-10.198
▁تقریبات	-10.1983
▁بائیو	-10.1983
▁کارڈ	-10.1992
▁سائنسدان	-10.2003
▁برآمد	-10.2004
میر	-10.2018
▁نگار	-10.2021
▁سڑکوں	-10.2024
▁گیمز	-10.2025
مار	-10.2031
▁صارف	-10.2035
ائٹس	-10.2037
▁لانگ	-10.2038
▁گھڑی	-10.2038
▁عالمگیر	-10.204
▁موصول	-10.204
▁کنندہ	-10.204
▁جامع	-10.204
▁اڈوں	-10.204
▁برائے	-10.204
▁نیلے	-10.2041
▁سوشلسٹ	-10.2043
▁آئن	-10.2043
آئی	-10.2043
▁امتیازی	-10.2044
▁باڈی	-10.2045
▁اجتماعی	-10.2046
▁$	-10.206
▁فلیٹ	-10.2062
▁ابن	-10.2062
▁ملٹی	-10.2063
مونٹ	-10.2066
97	-10.2073
مہ	-10.2091
▁ہو۔	-10.2093
آر	-10.2102
▁اضلاع	-10.2107
▁توثیق	-10.2107
▁قسطنطنیہ	-10.2107
▁نایاب	-10.2107
▁فلکیات	-10.2107
▁ڈاؤن	-10.211
ٹرز	-10.2118
▁ہیلی	-10.2119
67	-10.2125
کون	-10.2127
▁گواہوں	-10.2139
▁ریاستیں	-10.2143
▁شیر	-10.2147
▁نفسیات	-10.2151
▁صدارت	-10.2151
یٹس	-10.2167
▁متاثرہ	-10.2168
کوس	-10.2173
▁آدمی	-10.2175
▁بیکٹیریل	-10.2175
▁اسکرین	-10.2176
▁پڑھنے	-10.2179
▁کوریائی	-10.2181
▁پہنچے	-10.2194
▁ظاہری	-10.2199
▁قربانی	-10.2208
▁پیری	-10.2209
▁پر۔	-10.2214
▁مڈ	-10.2221
▁غذائی	-10.2238
▁ایکڑ	-10.2242
▁اعتراض	-10.2244
▁تھلگ	-10.2244
▁سہولیات	-10.2244
▁دفن	-10.2244
▁جشن	-10.2245
▁1993	-10.2246
یئن	-10.2247
▁بناتی	-10.2271
▁خان	-10.2272
▁ریپ	-10.2274
▁بیٹری	-10.2283
فل	-10.2286
▁اٹھا	-10.23
▁قدر	-10.231
▁بجے	-10.2313
▁ہوجاتا	-10.2313
▁فیڈریشن	-10.2313
▁سیکولر	-10.2313
▁مظاہرین	-10.2314
▁جوڑنے	-10.2316
▁رہ	-10.2317
▁اسٹاک	-10.2318
▁لیمپ	-10.2321
ست	-10.233
▁75	-10.2332
▁توڑ	-10.2334
▁گریٹر	-10.2336
▁کرو	-10.2337
▁پڑا۔	-10.2352
▁دوڑ	-10.2353
▁آرکائیو	-10.2362
▁پہاڑ	-10.2376
▁بیرون	-10.2377
▁مینوفیکچرنگ	-10.2382
sa	-10.2382
pa	-10.2383
▁انڈیکس	-10.2384
▁1977	-10.2385
▁ریور	-10.2386
▁پورٹو	-10.2387
▁فرانسس	-10.2387
▁ٹول	-10.2388
▁150	-10.2388
ian	-10.2389
▁چلاتا	-10.239
▁فیڈ	-10.2392
▁ضروریات	-10.2398
▁الیکٹرو	-10.2398
▁ہوگا۔	-10.2407
▁کارروائیوں	-10.2409
▁شاعری	-10.241
▁موسیقار	-10.2415
▁اسٹورز	-10.2424
▁کلو	-10.2432
▁1000	-10.2433
راس	-10.2434
زین	-10.2441
▁خوبصورت	-10.2452
▁غریب	-10.2452
▁مکینیکل	-10.2452
▁لوہے	-10.2452
▁سالگرہ	-10.2452
▁اسمتھ	-10.2453
اگو	-10.2453
▁فرض	-10.2454
▁گزر	-10.2455
▁1948	-10.2455
▁1985	-10.2456
▁موڑ	-10.2457
یاں	-10.2458
▁رکھ	-10.2459
▁نفسیاتی	-10.2477
پول	-10.2478
کٹر	-10.248
▁میٹا	-10.2502
▁سہ	-10.2508
▁اخراج	-10.2518
▁چوتھا	-10.2521
▁کبھار	-10.2522
▁اخذ	-10.2522
▁اسٹوریج	-10.2523
▁بہاؤ	-10.2523
▁ناموں	-10.2524
▁1976	-10.2525
▁اسٹیل	-10.2531
ننگ	-10.2533
▁اسپیس	-10.2533
▁گال	-10.2555
▁بکس	-10.2559
▁حامیوں	-10.2563
▁پلیئر	-10.2577
▁خاندانی	-10.2593
▁ایندھن	-10.2593
▁میانمار	-10.2593
▁دہشت	-10.2593
▁تہائی	-10.2594
▁قدیمہ	-10.2599
▁نوجوانوں	-10.2601
ائزڈ	-10.261
▁پسندوں	-10.2611
▁مارنے	-10.2617
▁بھیج	-10.2617
▁زخمی	-10.2618
▁عراق	-10.2618
▁کہیں	-10.2625
▁ورکس	-10.2632
▁ویک	-10.2663
▁اعتراف	-10.2665
▁افسانوی	-10.2665
▁صوبوں	-10.2665
▁مقدمہ	-10.2665
▁ڈومینیکن	-10.2665
▁پنجاب	-10.2665
▁چیپل	-10.2667
▁نمونے	-10.2667
▁ملازمین	-10.2667
ونک	-10.2674
▁مارٹن	-10.2679
▁کنی	-10.2679
▁تفریحی	-10.268
فین	-10.2681
▁ریلی	-10.2698
ویٹ	-10.2703
▁(17	-10.2706
▁مثالی	-10.2707
▁معدوم	-10.2734
▁رابطہ	-10.2737
▁سلامتی	-10.2737
▁ضبط	-10.2737
▁اسکائی	-10.2737
▁سمجھنے	-10.274
▁بت	-10.275
▁باپ	-10.2751
▁کمپنیاں	-10.2756
▁تاجروں	-10.2767
▁ایٹم	-10.2776
▁اولمپکس	-10.2778
▁اکاؤنٹ	-10.2789
▁پاک	-10.2798
▁اونچا	-10.2807
▁اشتراک	-10.2809
▁متوازی	-10.2809
▁متنوع	-10.2809
▁اسکرپٹ	-10.2809
▁شریک	-10.2809
▁اسپورٹس	-10.2809
▁پروٹوکول	-10.2809
▁جڑ	-10.2814
▁سومری	-10.2816
▁ایڈیٹر	-10.2824
بین	-10.2826
یوس	-10.283
▁اسکیم	-10.284
▁مضبوطی	-10.2851
بری	-10.2861
▁ججوں	-10.2863
▁نویں	-10.2868
▁ٹوٹ	-10.2879
▁تشدد	-10.2882
▁تلفظ	-10.2882
▁مدمقابل	-10.2882
▁مینجمنٹ	-10.2882
▁نمیبیا	-10.2882
▁ڈھانچہ	-10.2882
é	-10.2882
▁صاف	-10.2883
▁پس	-10.2883
▁باؤل	-10.2888
28	-10.2894
▁تبدیلیاں	-10.2895
▁چاندی	-10.2901
کین	-10.2908
▁نقصانات	-10.2908
▁اوپری	-10.2921
یں۔	-10.2924
▁انجینئر	-10.2946
▁قومیت	-10.2949
▁خلا	-10.2949
ورڈ	-10.2949
▁فاموں	-10.2951
▁کمپیوٹرز	-10.2955
▁متوجہ	-10.2956
▁تناؤ	-10.2956
▁سائیڈ	-10.2957
▁چلتی	-10.2958
▁1971	-10.2958
▁ہڈی	-10.2961
کلی	-10.2963
▁آرام	-10.2972
94	-10.2979
ho	-10.2981
▁پرجاتی	-10.2993
ad	-10.2995
▁سرپرست	-10.3001
▁سائ	-10.3006
▁پادریوں	-10.3007
ایس	-10.3029
▁الکاہل	-10.303
▁علماء	-10.303
▁محققین	-10.303
▁ایسٹونین	-10.303
▁جائیں	-10.303
▁منایا	-10.303
▁تکمیل	-10.303
▁خام	-10.3037
▁انڈے	-10.3046
▁پریشانی	-10.3049
کے	-10.3052
سم	-10.3057
▁بازو	-10.3062
نٹس	-10.3066
▁کانگ	-10.3068
▁ارب	-10.3071
ایم	-10.3077
▁لڑ	-10.308
ڈیل	-10.3082
▁£	-10.3084
ts	-10.3089
▁دائر	-10.3089
▁ایلن	-10.3092
ہم	-10.3095
▁ٹرو	-10.3095
▁انتقال	-10.3104
▁ریڑھ	-10.3104
▁ضوابط	-10.3104
▁خزاں	-10.3104
▁قطب	-10.3104
▁Ma	-10.3108
اہ	-10.3109
▁سور	-10.311
▁بنتا	-10.3112
▁پہلوان	-10.3112
▁سکھ	-10.3124
ent	-10.3125
رڈ	-10.3147
ka	-10.3148
▁مسلمان	-10.3152
ə	-10.3171
▁تاخیر	-10.318
▁دفاتر	-10.318
▁سلطان	-10.318
▁ہنوور	-10.318
▁پیدل	-10.318
▁گانوں	-10.318
▁The	-10.318
▁کاشت	-10.3181
▁نامزدگی	-10.3183
▁فرسٹ	-10.3188
▁جنگلات	-10.3188
▁نوبل	-10.3189
▁نازی	-10.3208
▁بگ	-10.3214
▁مسافر	-10.3218
▁ٹار	-10.3219
ارٹ	-10.3222
▁شاعر	-10.3225
▁لی۔	-10.3238
▁سیکسن	-10.3249
▁اقدام	-10.3251
▁اقدار	-10.3255
▁تعارف	-10.3255
▁ظہور	-10.3255
▁متضاد	-10.3255
▁ویکیوم	-10.3255
▁سچائی	-10.3257
▁تفصیلات	-10.3257
▁کاپیاں	-10.326
▁جوڑے	-10.3262
▁مدار	-10.3263
▁الہی	-10.3269
).	-10.3284
▁کھیلنے	-10.3285
▁پڑ	-10.3285
▁جینوں	-10.3286
▁ٹام	-10.3287
▁ایمان	-10.333
▁ایتھلیٹک	-10.3332
▁مربوط	-10.3332
▁1944	-10.3332
▁چھٹے	-10.3332
▁کامکاسٹ	-10.3332
▁اسٹائل	-10.3333
▁گاؤں	-10.3338
▁ماؤنٹین	-10.3343
▁پرستوں	-10.335
man	-10.3351
▁ہائیڈرو	-10.3356
▁جونیئر	-10.3358
▁سوار	-10.336
میٹر	-10.3367
▁(16	-10.3368
▁قید	-10.3383
▁بنایا۔	-10.34
▁اشنکٹبندیی	-10.3409
▁ثانوی	-10.3409
▁وعدہ	-10.3409
▁دھمکی	-10.3409
▁مونٹانا	-10.3409
▁پیسہ	-10.3409
▁رواج	-10.341
▁جوڑتا	-10.3412
23	-10.3414
▁مرکبات	-10.3421
ریڈ	-10.3425
▁کرداروں	-10.3429
▁صف	-10.3435
▁ڈومین	-10.344
▁جماعت	-10.3441
▁گواہ	-10.3454
اکا	-10.3461
▁معمول	-10.3462
▁الیکٹران	-10.3476
▁ہند	-10.3476
▁سینا	-10.3482
▁آلودگی	-10.3486
▁مجسمہ	-10.3486
▁مرحلہ	-10.3486
▁ایوسینا	-10.3486
▁ضمانت	-10.3486
▁بدعت	-10.3486
▁بٹومین	-10.3487
▁باسکٹ	-10.3487
▁طول	-10.3487
▁ساموا	-10.3489
وئی	-10.3494
▁سیاحوں	-10.3495
▁میگ	-10.35
▁قیدیوں	-10.3505
▁توپ	-10.3514
▁مول	-10.3522
اسی	-10.3529
▁دیواروں	-10.3541
me	-10.3542
▁عدالتوں	-10.355
▁منزل	-10.3556
▁فلمیں	-10.3563
▁راغب	-10.3564
▁شدت	-10.3564
▁قدامت	-10.3564
▁متوقع	-10.3564
▁معطل	-10.3564
▁منسوب	-10.3564
▁وغیرہ	-10.3564
▁یونیکوڈ	-10.3564
▁جارہا	-10.3564
▁اموات	-10.3564
▁دوچار	-10.3564
▁انگور	-10.3565
▁ڈیک	-10.3566
▁1917	-10.3569
▁اتنی	-10.3569
▁آزادانہ	-10.3569
▁سولو	-10.357
▁سیمی	-10.3572
▁فریق	-10.3578
▁کنٹری	-10.3581
▁اپنانے	-10.3594
▁رنگوں	-10.3595
▁اخبارات	-10.3595
▁افتتاحی	-10.3596
▁ٹائپ	-10.3604
یان	-10.3606
ir	-10.3608
▁انجن	-10.3626
▁اگ	-10.3641
▁افعال	-10.3643
▁عمودی	-10.3643
▁گراؤنڈ	-10.3643
▁یونائیٹڈ	-10.3643
▁تہجی	-10.3643
▁کوانٹم	-10.3643
▁1964	-10.3648
▁شق	-10.3648
▁نہاد	-10.3649
▁ہٹانے	-10.3653
یلو	-10.3653
▁ہوگی۔	-10.3662
▁جگہوں	-10.3673
▁جنگل	-10.3674
▁فیس	-10.3683
رج	-10.3686
▁بیوی	-10.3686
گرا	-10.3698
▁ویلی	-10.3705
▁تحریر	-10.3714
▁موڈ	-10.372
ː	-10.3722
▁خدشات	-10.3722
▁مذمت	-10.3722
▁ایڈجسٹ	-10.3722
▁تائیوان	-10.3723
▁پہلوؤں	-10.3724
▁1972	-10.3725
▁آئلینڈ	-10.3727
▁جیانگ	-10.3732
▁1900	-10.3737
▁عدالتی	-10.3739
▁گریز	-10.3754
▁نیپال	-10.3768
▁فوڈ	-10.3775
ینو	-10.3776
mo	-10.3784
▁ماریا	-10.3795
▁میساچوسٹس	-10.3802
▁ویکسین	-10.3802
▁مرتب	-10.3803
▁کرسٹل	-10.3804
▁انجیل	-10.3805
▁لڑنے	-10.3807
▁غذائیت	-10.3811
ران	-10.3814
▁44	-10.3827
وار	-10.3832
دیکھیں	-10.3844
▁چڑھ	-10.3879
▁مذاہب	-10.3883
▁کھپت	-10.3883
▁خلیات	-10.3883
▁سوازیلینڈ	-10.3883
▁کمرے	-10.3883
▁دمہ	-10.3883
▁پمپ	-10.3884
▁جلتا	-10.3885
▁میجر	-10.3887
▁زمینوں	-10.3887
▁1918	-10.3888
▁ذہن	-10.3893
▁آئس	-10.3898
▁اداکار	-10.3899
▁بھرتی	-10.3906
ٹیس	-10.3908
ائر	-10.3911
▁یہودیت	-10.3917
رب	-10.393
▁وول	-10.3933
▁آئل	-10.3934
▁فوجوں	-10.3934
▁گولڈ	-10.3936
▁ہاتھوں	-10.3943
▁دانوں	-10.3959
وما	-10.3961
▁انٹرٹینمنٹ	-10.3964
▁باقاعدگی	-10.3964
▁عقیدہ	-10.3964
▁1961	-10.3964
▁سوائے	-10.3964
▁ارادہ	-10.3964
▁یکساں	-10.3965
▁1967	-10.3967
▁میونسپلٹی	-10.3967
▁1978	-10.3969
▁حراستی	-10.3971
▁برون	-10.3973
▁ہاٹ	-10.3979
po	-10.398
▁ساتھی	-10.3988
▁سنگ	-10.3988
▁ٹیسٹنگ	-10.399
▁اداکاری	-10.3991
گس	-10.3992
he	-10.4001
▁سفارت	-10.4017
لیم	-10.4028
الا	-10.4028
▁آوازوں	-10.4029
یرا	-10.4034
▁انڈو	-10.4036
▁تھری	-10.4037
تن	-10.4037
▁صلیبی	-10.4038
▁اخلاقی	-10.4042
▁بھاگ	-10.4042
▁اوسطاً	-10.4046
▁ایکسپلورر	-10.4046
▁فلسفے	-10.4046
▁موبائل	-10.4046
▁نمونہ	-10.4046
▁دسویں	-10.4046
▁دنوں	-10.4048
▁سزائے	-10.4049
▁ریکو	-10.406
▁عنوانات	-10.4061
▁رکھی۔	-10.4067
▁جمہوری	-10.4114
de	-10.4116
▁دستبردار	-10.4129
▁پارلیمانی	-10.4129
▁دکان	-10.4129
▁شیڈول	-10.4129
▁تھیوری	-10.4129
▁1984	-10.4132
▁ایوی	-10.4142
▁الزامات	-10.4143
▁ینگ	-10.415
ولین	-10.4152
▁جارجیا	-10.4156
▁ٹیکنالوجیز	-10.4168
▁دھن	-10.4173
انس	-10.42
▁بوس	-10.4207
▁مقدمات	-10.4212
▁ڈویلپمنٹ	-10.4212
▁گہری	-10.4212
▁روانہ	-10.4215
▁ہیلتھ	-10.4217
▁1973	-10.4217
▁آرتھر	-10.422
▁400	-10.422
ut	-10.4222
▁روسیوں	-10.4222
▁رائن	-10.423
▁پہنچایا	-10.423
▁نکل	-10.4233
پنگ	-10.4236
▁کارڈینلز	-10.4241
ck	-10.4244
▁جانسن	-10.4251
لام	-10.4253
مثال	-10.4261
رگ	-10.4262
▁سلطنتوں	-10.4265
▁فرم	-10.4266
tr	-10.4273
ation	-10.4278
▁سپیکٹر	-10.4287
▁ڈرامائی	-10.4296
▁پیپلز	-10.4296
▁ٹرانسپورٹ	-10.4297
▁سینئر	-10.4297
▁واقفیت	-10.4298
▁معدنیات	-10.4298
▁دریاؤں	-10.4299
▁میموریل	-10.4309
▁کیبس	-10.4313
▁نہر	-10.4318
▁بیسن	-10.4323
ڈیا	-10.4325
رٹ	-10.4327
▁فیئر	-10.4328
▁موسیقاروں	-10.4341
گوٹ	-10.4357
▁پریڈ	-10.4361
▁کوچ	-10.4364
▁پیک	-10.4364
▁دکھا	-10.437
▁سرنگ	-10.4372
bi	-10.4379
▁ہالی	-10.4381
▁1966	-10.4381
▁کمپلیکس	-10.4381
▁ہوجائے	-10.4381
▁مینیجر	-10.4381
▁ٹھوس	-10.4381
▁کینساس	-10.4382
▁برٹش	-10.4382
▁فلسفیانہ	-10.4382
▁اسپیڈ	-10.4383
▁لینڈنگ	-10.4386
▁کھلے	-10.4387
▁چلائی	-10.4389
▁جوڑ	-10.44
▁البمز	-10.4401
کاری	-10.4402
▁الب	-10.4404
▁آرچ	-10.4405
اوی	-10.4412
▁ڈری	-10.442
▁گاڑی	-10.4428
▁تعلیمات	-10.443
ڈنگ	-10.4433
▁آبادیوں	-10.445
▁پہچان	-10.4454
og	-10.4464
▁سختی	-10.4466
▁قلعے	-10.4467
▁مچھلی	-10.4467
▁کھڑا	-10.4467
▁برانڈ	-10.4467
▁سوراخ	-10.4467
▁بچانے	-10.4471
▁لائنز	-10.4474
▁کشتی	-10.4474
ڈے	-10.4481
▁رائ	-10.4483
▁کوریج	-10.4487
▁وینس	-10.4489
▁ایسٹر	-10.4493
▁Co	-10.4495
▁گیری	-10.4499
▁اسٹیج	-10.4503
▁کاسٹ	-10.4541
▁ذہنی	-10.4542
▁میرین	-10.4547
▁احترام	-10.4553
▁تدفین	-10.4553
▁تزئین	-10.4553
▁تصادم	-10.4553
▁دعوت	-10.4553
▁غائب	-10.4553
▁مذاکرات	-10.4553
▁پائلٹ	-10.4553
▁خلیوں	-10.4553
▁ٹرانسمیٹر	-10.4553
▁مماثلت	-10.4556
▁1986	-10.4556
▁1975	-10.4556
▁گرامر	-10.4557
▁علی	-10.4557
▁رکنیت	-10.4559
ba	-10.456
▁تکلیف	-10.4567
▁وقفے	-10.4571
▁ویانا	-10.4579
▁سائنسدانوں	-10.46
یش	-10.4607
▁پیلی	-10.4616
▁پریشان	-10.4617
▁160	-10.463
▁بصری	-10.464
▁عرض	-10.464
▁مراحل	-10.464
▁نقاب	-10.464
▁یوآن	-10.464
▁بچپن	-10.464
▁تھرمل	-10.464
▁نکولس	-10.464
▁جرسی	-10.4641
▁پریمیر	-10.4641
▁روحانی	-10.4642
▁1914	-10.4645
▁فرانسسکو	-10.4652
▁چیزوں	-10.4673
موس	-10.4679
▁لیتے	-10.468
▁گارڈن	-10.4689
▁معمار	-10.469
▁پینے	-10.4695
سکا	-10.4697
▁بستی	-10.4698
▁گڈ	-10.4699
sh	-10.47
پلی	-10.4708
▁پالیسیوں	-10.4713
▁غذا	-10.4726
▁ریو	-10.4727
▁آکسائڈ	-10.4727
▁حصول	-10.4727
▁محافظ	-10.4727
▁ملحقہ	-10.4727
▁نشاۃ	-10.4727
▁بارہویں	-10.4727
▁بتائیں	-10.4727
▁فیکلٹی	-10.4727
▁1982	-10.473
▁ثانیہ	-10.4734
▁فیفا	-10.4736
▁مالکان	-10.474
▁ڈیلی	-10.4745
▁ٹیبل	-10.4746
▁قرضے	-10.475
▁دیں۔	-10.4752
▁فارس	-10.4754
08	-10.4755
▁رہائی	-10.4757
▁دستاویزی	-10.4768
ine	-10.4769
▁ایری	-10.4777
▁بیلٹ	-10.4783
▁سانس	-10.4785
▁فنکشن	-10.479
▁پیر	-10.4791
▁لمبا	-10.4815
▁صبح	-10.4816
▁پروسیسنگ	-10.4816
Q	-10.4816
▁BeiDou	-10.4816
▁میکسیکن	-10.4816
▁انٹرفیس	-10.4816
▁آفیسر	-10.4818
▁ڈیس	-10.4819
▁1981	-10.4819
▁سکے	-10.4821
▁ماری	-10.4833
,6	-10.4834
▁اناج	-10.485
▁فرقہ	-10.485
ٹکس	-10.4851
▁موضوعات	-10.4852
im	-10.486
▁موٹرز	-10.4873
▁لیتا	-10.4883
▁ہارٹ	-10.4886
ء	-10.49
▁اسکندریہ	-10.4905
▁خیراتی	-10.4905
▁دھماکے	-10.4905
▁ناقص	-10.4905
▁نمائندوں	-10.4905
▁اوقیانوس	-10.4905
▁حامل	-10.4905
▁پروسیا	-10.4906
▁of	-10.4906
▁1963	-10.4908
ریم	-10.491
▁مالا	-10.4912
▁1860	-10.4915
▁واک	-10.4924
▁KU	-10.493
ونٹ	-10.4933
▁لیٹر	-10.4935
▁سون	-10.4935
tic	-10.4938
وٹو	-10.4941
یٹی	-10.4941
▁کرنٹ	-10.4943
▁فنون	-10.4953
▁(6	-10.4954
▁کورس	-10.4954
▁بندرگاہوں	-10.4958
▁روکا	-10.4959
یسس	-10.4959
▁سمجھ	-10.4961
سکو	-10.4962
▁درختوں	-10.4973
▁بچت	-10.4981
▁52	-10.499
▁افسر	-10.4991
▁عمری	-10.4992
▁نارمن	-10.4993
▁اساتذہ	-10.4995
▁بظاہر	-10.4995
▁تھورنگیا	-10.4995
▁حیرت	-10.4995
▁فوائد	-10.4995
▁لغت	-10.4995
▁ٹرانزٹ	-10.4995
▁یروشلم	-10.4995
▁آپریٹنگ	-10.4995
▁موقف	-10.4995
▁خیز	-10.4998
▁انکوڈنگ	-10.4999
tu	-10.5005
▁تھیم	-10.5011
▁پڑھا	-10.5017
▁آور	-10.5019
▁ایج	-10.5021
▁سنبھالا	-10.5023
ڈیم	-10.5024
▁پوائنٹس	-10.5032
▁نوٹر	-10.5032
▁علمی	-10.5034
▁عہدیدار	-10.5049
▁قدم	-10.5062
▁ڈیوائس	-10.5066
em	-10.5067
ae	-10.5068
▁Sa	-10.5077
▁ایجنسیوں	-10.5079
4،000	-10.5086
▁خطرناک	-10.5086
▁صحافی	-10.5086
▁مطلق	-10.5086
▁ٹرافی	-10.5086
▁انفرا	-10.5087
▁کمشنر	-10.5088
▁1958	-10.509
▁سپیکٹرم	-10.5097
▁ٹانگ	-10.5097
▁پڑتال	-10.5106
▁فضائیہ	-10.5109
▁معاشیات	-10.5115
▁بائی	-10.5115
گار	-10.5115
▁اسٹوڈیوز	-10.5121
▁نشست	-10.5133
▁رہے۔	-10.5139
▁سرے	-10.5148
▁آئ	-10.5166
▁کریں۔	-10.5166
اخ	-10.5167
05	-10.517
ولو	-10.5177
▁ارسطو	-10.5178
▁ناقدین	-10.5178
▁چائلڈ	-10.5178
▁گھنٹہ	-10.5178
▁سرزمین	-10.5178
▁کرنسی	-10.5179
▁اسٹالن	-10.5179
▁پسندیدہ	-10.5179
▁مطلوبہ	-10.5179
▁گزار	-10.518
▁وسطیٰ	-10.518
▁1983	-10.5181
▁1937	-10.5181
▁جیکسن	-10.5183
▁La	-10.5185
▁ڈیٹ	-10.519
▁واٹ	-10.5192
▁سار	-10.5194
پولس	-10.5198
تہ	-10.5199
بول	-10.5207
▁فنڈز	-10.5211
بار	-10.5215
عام	-10.5217
▁ویو	-10.5242
اوا	-10.5255
do	-10.5259
▁پلا	-10.5263
متوفی	-10.5271
▁رسومات	-10.5271
▁قرارداد	-10.5271
▁مفید	-10.5271
▁پیڈ	-10.5271
▁لکھتے	-10.5273
▁سپورٹ	-10.5273
▁بازی	-10.5274
▁1953	-10.5274
▁ویڈیوز	-10.5283
▁100،000	-10.5284
▁اولڈ	-10.5292
▁مہمان	-10.5292
سیف	-10.5296
▁تاجر	-10.531
▁گرے	-10.5321
لیب	-10.5333
▁چاند	-10.5339
▁پروگرامنگ	-10.534
-10	-10.5345
▁رجسٹر	-10.5353
چین	-10.5354
▁معاشروں	-10.5364
▁مقدمے	-10.5364
▁وکالت	-10.5364
▁کنیکٹیکٹ	-10.5364
بیس	-10.5364
▁ادوار	-10.5364
▁شخصیات	-10.5364
▁شاندار	-10.5365
▁دیکھتے	-10.5372
▁رکھنا	-10.5373
▁لڑی	-10.5373
ولر	-10.5377
▁شور	-10.5379
▁اتار	-10.5384
ly	-10.5386
ie	-10.5392
▁راستوں	-10.5398
▁ڈک	-10.5413
یکو	-10.5425
▁بنی	-10.5431
یڈس	-10.5437
▁والٹ	-10.5456
α	-10.5458
3،000	-10.5458
▁انڈرگریجویٹ	-10.5458
▁ریفرنڈم	-10.5458
▁مانچسٹر	-10.5458
▁موافقت	-10.5458
▁نشوونما	-10.5458
▁نژاد	-10.5458
▁زمرے	-10.5458
▁کابینہ	-10.5458
▁گہرائی	-10.5459
▁قبر	-10.5459
▁معاون	-10.546
لوں	-10.5461
▁اہل	-10.5462
▁1968	-10.5463
nt	-10.5465
▁ایرینا	-10.5465
▁نشستیں	-10.5466
▁بھیجے	-10.5468
▁بڑھتا	-10.5481
▁صوتیات	-10.5506
ran	-10.5512
▁مارے	-10.5518
700	-10.5519
کور	-10.5533
▁کروز	-10.5534
▁کتابیں	-10.5535
فارم	-10.5538
وچ	-10.5541
▁موریس	-10.555
▁الذکر	-10.5554
▁انتھروپولوجی	-10.5554
▁انعقاد	-10.5554
▁جیفرسن	-10.5554
▁حجم	-10.5554
▁طیارہ	-10.5554
▁مؤخر	-10.5554
▁مملکت	-10.5554
▁فعل	-10.5554
▁قائل	-10.5554
▁لکھ	-10.5556
▁1922	-10.5557
▁نوازا	-10.5559
da	-10.5562
▁رہی۔	-10.557
▁وائرس	-10.5573
▁سننے	-10.5575
▁پیلس	-10.558
▁ریف	-10.5592
▁مارکس	-10.5593
▁کردی۔	-10.5594
▁ریت	-10.56
▁برادریوں	-10.5627
▁ہول	-10.5634
▁بنتی	-10.5636
▁وائر	-10.564
یعنی	-10.5641
فون	-10.5643
▁ایجوکیشن	-10.565
▁دروازے	-10.565
▁رومانٹک	-10.565
▁ظلم	-10.565
▁ٹورنامنٹ	-10.565
▁1952	-10.565
▁تشویش	-10.565
▁انگیز	-10.565
▁آرکیٹیکچرل	-10.565
▁کنیکٹر	-10.565
▁چوتھائی	-10.5652
▁1880	-10.5664
▁بینکوں	-10.5665
▁لانے	-10.5691
▁ڈیکو	-10.5699
▁مسیحی	-10.5703
انٹ	-10.5712
▁شوز	-10.5724
▁لیپ	-10.5726
▁لفظی	-10.5737
▁قوموں	-10.5741
▁طب	-10.5744
▁حساس	-10.5745
پری	-10.5745
▁مجرم	-10.5746
▁افغانستان	-10.5747
▁خطوط	-10.5747
▁لطف	-10.5747
▁براڈوے	-10.5747
▁طبقات	-10.5747
▁جرنل	-10.5747
▁توازن	-10.5747
▁برسوں	-10.5747
▁چمک	-10.5747
▁نامیاتی	-10.5749
▁اینجلس	-10.5753
▁سیکنڈری	-10.5756
▁سیپ	-10.5756
▁بالٹک	-10.5758
ڈٹ	-10.5759
شل	-10.5759
▁all	-10.5759
▁10،000	-10.5761
▁پیلے	-10.577
▁فائرنگ	-10.577
▁مزدوروں	-10.5772
شپ	-10.5786
کٹو	-10.5791
▁عہد	-10.5792
▁ہیو	-10.5792
▁(15	-10.5793
▁سمر	-10.5798
▁گلو	-10.5798
راڈ	-10.5802
ant	-10.583
▁سوشل	-10.5841
▁راجستھان	-10.5845
▁شائقین	-10.5845
▁صوبائی	-10.5845
▁قارئین	-10.5845
▁سامورائی	-10.5845
▁الفریڈ	-10.5846
▁سنیما	-10.5847
▁خریدنے	-10.5847
▁کوارٹر	-10.5848
▁صفائی	-10.5849
▁1956	-10.585
▁حاضری	-10.5855
▁فیری	-10.5855
▁نکلا	-10.586
▁سفارتی	-10.588
▁والٹر	-10.5884
لت	-10.5888
▁بلند	-10.5889
دھا	-10.5895
نگس	-10.5898
ولس	-10.59
▁پہنا	-10.59
▁ٹرائ	-10.5907
▁پابندیوں	-10.591
▁ویز	-10.5922
گیٹ	-10.5923
▁تفہیم	-10.5944
▁تھوڑا	-10.5944
▁جدت	-10.5944
▁دھوکہ	-10.5944
▁محاصرے	-10.5944
▁شعور	-10.5944
▁ورجل	-10.5944
▁اسسٹنٹ	-10.5945
▁مونیکا	-10.5945
▁ہینری	-10.5946
▁سہرا	-10.5949
▁1910	-10.5949
▁ہور	-10.5953
▁صلیب	-10.5954
کلاسیکل	-10.5959
▁رالی	-10.5965
▁تنگ	-10.597
▁سرپرستی	-10.5983
▁جانشینی	-10.5983
▁بٹن	-10.5985
▁54	-10.5986
▁امور	-10.5992
یٹک	-10.6003
لسٹ	-10.6017
▁آسمان	-10.6022
ستان	-10.6029
▁چپ	-10.6029
▁گلاس	-10.6036
▁الکحل	-10.6044
▁امیگریشن	-10.6044
▁برصغیر	-10.6044
▁گیارہویں	-10.6044
▁نیویگیشن	-10.6044
▁مورخ	-10.6045
▁1936	-10.6048
▁بھیجنے	-10.6049
▁اندراج	-10.605
▁نکالنے	-10.6052
▁خبر	-10.6052
▁ہاربر	-10.6053
▁نیورو	-10.6059
▁عقل	-10.6061
▁راہبوں	-10.6071
▁ایکشن	-10.6077
▁ایٹن	-10.6078
▁گلا	-10.608
▁مہا	-10.6084
▁داخلے	-10.609
ell	-10.6095
▁گرانٹ	-10.6104
▁آربر	-10.6104
▁وفادار	-10.611
نگٹن	-10.6118
▁ڈسکس	-10.6125
▁فیکٹری	-10.6126
▁میونسپل	-10.6141
▁برآں	-10.6145
▁براؤزر	-10.6145
▁بپتسمہ	-10.6145
▁قونصل	-10.6145
▁پیشرفت	-10.6145
▁اسپتال	-10.6145
▁نمونوں	-10.6145
▁گیند	-10.6145
▁سیلاب	-10.6152
▁صلاحیتوں	-10.6154
▁علموں	-10.6159
▁پچ	-10.617
▁میسن	-10.6171
▁بد	-10.6177
▁برڈ	-10.6178
▁الیکٹرانکس	-10.6179
900	-10.6185
▁ٹریل	-10.6185
▁کالجوں	-10.6186
▁پرانا	-10.6191
▁کریم	-10.6191
03	-10.6192
▁ہڈیوں	-10.6197
▁پھولوں	-10.6202
▁بندوق	-10.6202
▁زبانی	-10.6202
▁منطق	-10.6222
▁کروائی	-10.6225
▁پکڑ	-10.6246
▁اثاثوں	-10.6247
▁اقتصادی	-10.6247
▁ایریزونا	-10.6247
▁سینکڑوں	-10.6247
▁قلعہ	-10.6247
▁مسابقتی	-10.6247
▁مقابلوں	-10.6247
▁کھڑی	-10.6247
▁یوئیفا	-10.6247
▁پٹھوں	-10.6247
▁کوششیں	-10.6251
▁1965	-10.6253
▁1876	-10.6254
▁چلے	-10.6255
▁مانگ	-10.6256
▁روزگاری	-10.6256
▁جڑیں	-10.6258
▁چل	-10.626
▁کشش	-10.6261
▁لاما	-10.6264
▁کورسز	-10.6272
▁تھائی	-10.6275
▁منہ	-10.6277
▁جولین	-10.6279
▁مہمات	-10.6295
▁سینیٹر	-10.6295
▁جلا	-10.6307
▁دشمنی	-10.6313
▁پلیس	-10.6315
▁گلیڈ	-10.6318
▁باغ	-10.6323
تھین	-10.6342
▁حسی	-10.6343
▁برداشت	-10.635
▁سکاٹش	-10.635
▁ہدایات	-10.635
▁1943	-10.635
▁میکانزم	-10.635
▁اچھا	-10.635
▁چیمبر	-10.635
▁مہایان	-10.6351
▁ہڈسن	-10.6351
▁IV	-10.6353
▁خطاب	-10.6354
▁دلیل	-10.6355
▁اسکین	-10.6355
▁رجسٹرڈ	-10.636
▁the	-10.6369
▁اوپ	-10.637
mp	-10.6379
▁گردش	-10.6382
▁یونیورسٹیاں	-10.6388
▁نیٹو	-10.639
▁گردی	-10.6401
▁داریوں	-10.6402
ab	-10.6404
▁کالم	-10.6405
▁سائبر	-10.6413
▁ملے	-10.6437
وسٹ	-10.6438
▁پیغام	-10.645
جین	-10.6451
▁گریگوری	-10.6451
XNUMX	-10.6454
▁اسٹراسبرگ	-10.6454
▁اکٹھا	-10.6454
▁تاجپوشی	-10.6454
▁لائبیریا	-10.6454
▁ماخذ	-10.6454
▁پرتشدد	-10.6454
▁کروموسوم	-10.6454
▁متفق	-10.6454
▁گٹار	-10.6454
▁ہوجاتی	-10.6454
▁دربار	-10.6454
▁مینوفیکچررز	-10.6456
▁گریمی	-10.6457
▁ہموار	-10.6459
▁کھولی	-10.6466
▁مشی	-10.6472
▁نان	-10.6479
▁اڑا	-10.6479
▁کانفرنسنگ	-10.648
▁گرنے	-10.6484
▁فرقے	-10.649
▁بول	-10.6493
▁اوپن	-10.6497
▁تحریروں	-10.6502
▁ٹیگ	-10.6505
ya	-10.6508
▁ہینڈ	-10.653
▁(10	-10.6531
▁فنکار	-10.6539
▁مثالوں	-10.655
▁کھینچ	-10.6556
ث	-10.6558
▁اچھے	-10.6559
▁تنخواہ	-10.6559
▁خواندگی	-10.6559
▁دیوالیہ	-10.6559
▁سجاوٹ	-10.6559
7،000	-10.6559
▁ڈزنی	-10.6559
▁اتوار	-10.656
▁آبادکاری	-10.6561
▁براڈ	-10.6562
▁پائیدار	-10.6563
▁1955	-10.6564
▁پبوں	-10.6565
▁1.5	-10.6575
▁نیدرلینڈز	-10.6577
▁آرگن	-10.6587
▁اتر	-10.6587
▁رے	-10.6592
▁لائٹنگ	-10.6592
▁ہوکر	-10.6596
▁1800	-10.6599
▁جاز	-10.6604
▁انڈین	-10.6616
ٹور	-10.6626
▁بروک	-10.6637
▁لیڈر	-10.6655
▁Ch	-10.6659
▁ساتھیوں	-10.6661
▁تابع	-10.6666
▁انڈونیشیا	-10.6666
▁ینالاگ	-10.6666
▁1931	-10.6666
▁پھینک	-10.6666
▁لبنان	-10.6666
▁بکنگھم	-10.6666
▁سٹریٹ	-10.6667
▁برفانی	-10.667
▁مونٹینی	-10.6673
▁کوڈنگ	-10.6675
▁دائرے	-10.6676
▁چن	-10.6681
▁داروں	-10.6688
▁جنگجو	-10.6718
▁امدادی	-10.672
▁42	-10.6725
▁رام	-10.6727
▁باری	-10.6729
کوٹ	-10.6735
کوف	-10.6747
▁کھا	-10.6758
▁نامے	-10.6767
6،000	-10.6773
▁اشارے	-10.6773
▁رقبہ	-10.6773
▁معاملہ	-10.6773
▁یوراگوئے	-10.6773
▁نچلی	-10.6773
▁مغل	-10.6773
▁کنڈکٹر	-10.6773
▁فضلہ	-10.6775
▁مادی	-10.6775
▁میز	-10.6777
▁1946	-10.6778
بان	-10.6783
▁مریضوں	-10.6792
▁مسٹر	-10.6793
▁کھیلتے	-10.68
وت	-10.6807
یئم	-10.6811
▁باروک	-10.6814
ru	-10.6818
▁گاڑیوں	-10.682
ورٹ	-10.6824
▁ریک	-10.6828
▁ریورس	-10.6853
سپر	-10.6854
نوٹ	-10.6855
▁Pa	-10.6872
▁ثانی	-10.6874
ec	-10.6874
▁محرک	-10.6878
ِ	-10.6882
▁افزائش	-10.6882
▁تاجکستان	-10.6882
▁صحارا	-10.6882
▁فائبر	-10.6882
▁منصفانہ	-10.6882
▁1954	-10.6882
▁ڈپٹی	-10.6882
▁اہلیہ	-10.6883
▁نادر	-10.6884
▁1957	-10.6886
▁سنٹرل	-10.6887
▁1912	-10.6887
▁کینسر	-10.6888
▁دیکھا۔	-10.6888
▁رہنمائی	-10.6893
▁1870	-10.6893
▁پینٹنگز	-10.6896
▁تپ	-10.6897
▁بڑھنے	-10.6907
▁ٹریننگ	-10.6908
▁فلور	-10.6916
دین	-10.6954
ot	-10.6954
▁برطرف	-10.6958
ers	-10.6971
نیو	-10.6972
▁سطحوں	-10.6973
▁سائنسز	-10.6973
▁1،	-10.6977
ν	-10.6992
▁ارتقائی	-10.6992
▁بدترین	-10.6992
▁زلزلہ	-10.6992
▁عبرانی	-10.6992
▁علوم	-10.6992
▁متعدی	-10.6992
▁بیشتر	-10.6992
▁سیارے	-10.6992
▁قبرستان	-10.6992
▁سکھایا	-10.6993
▁پرچم	-10.6994
▁میکس	-10.6997
▁1938	-10.6997
▁کھولنے	-10.6998
▁پون	-10.6999
اکس	-10.7003
▁ترکیب	-10.7003
▁1840	-10.7011
▁فنڈنگ	-10.7014
au	-10.7028
▁خاصیت	-10.7037
▁نظاموں	-10.7044
▁ہوں۔	-10.7047
▁صنعتوں	-10.705
▁راکٹ	-10.7059
▁امیدواروں	-10.7062
▁زبردست	-10.7078
▁پہنچی	-10.7084
▁Ca	-10.7086
▁ہیری	-10.7088
▁سونگ	-10.7088
▁جیل	-10.7102
▁الپائن	-10.7103
▁انچارج	-10.7103
▁دشواری	-10.7103
▁مدافعتی	-10.7103
▁ناظرین	-10.7103
▁والنسین	-10.7103
▁1942	-10.7103
▁1861	-10.7103
▁نیویارک	-10.7103
▁مرکری	-10.7103
▁اسپیکر	-10.7103
▁فنکارانہ	-10.7104
▁چربی	-10.7104
▁مقدونیہ	-10.7104
▁نمو	-10.7105
▁VII	-10.7107
▁خوف	-10.7107
▁1962	-10.7107
▁فائنلسٹ	-10.7115
ou	-10.7117
▁ترقیاتی	-10.7118
▁لڑا	-10.7118
▁جوڑا	-10.7119
+	-10.7121
کیا	-10.7125
▁کھلی	-10.7128
▁چھپا	-10.7129
▁فرار	-10.7131
▁لینا	-10.7132
کول	-10.7133
▁آپریشنل	-10.7133
یئرز	-10.7137
▁فلائٹ	-10.7153
que	-10.7156
▁جائز	-10.72
سپین	-10.7203
▁مڈل	-10.721
▁تعامل	-10.7215
▁وزراء	-10.7215
▁کھڑے	-10.7215
▁ہڑتال	-10.7215
▁مائع	-10.7215
▁منچو	-10.7215
▁جوآن	-10.7216
▁انگوٹی	-10.7216
▁گھاس	-10.7216
▁نیند	-10.7216
▁کوئین	-10.7217
▁کردیئے	-10.7219
▁کنکشن	-10.7223
▁ٹیلر	-10.7236
▁پرنٹنگ	-10.7238
▁شیٹ	-10.7246
ٹڈ	-10.725
▁ڈوب	-10.7257
▁ایٹمی	-10.7259
▁گز	-10.7272
▁پہنچا۔	-10.7275
▁شان	-10.7276
▁آئے۔	-10.7282
▁میو	-10.729
,0	-10.7298
▁زیڈ	-10.7302
-4	-10.7308
▁لائنیں	-10.7309
▁گینگ	-10.7314
▁ہاؤسنگ	-10.7318
▁سنی	-10.7324
▁ابو	-10.7324
▁آکسفورڈ	-10.7329
▁تقویت	-10.7329
▁حصص	-10.7329
▁نمٹنے	-10.7329
▁ٹرانزسٹر	-10.7329
▁چودہویں	-10.7329
▁ڈھال	-10.7329
▁رومانوی	-10.7329
▁اسٹیفن	-10.7329
▁بادل	-10.7329
▁کرایہ	-10.7329
▁درکار	-10.7329
جز	-10.7329
▁گھرانوں	-10.7329
▁فرینکلن	-10.733
▁گھومنے	-10.7333
▁ریویو	-10.7333
▁1919	-10.7333
▁بیساو	-10.7334
▁آرٹیکل	-10.7334
▁1959	-10.7335
▁گراف	-10.7337
کم	-10.734
▁مخالفین	-10.7344
▁لوس	-10.735
▁یورپیوں	-10.7354
ag	-10.7356
بال	-10.7365
▁بستیوں	-10.7377
ist	-10.739
نوس	-10.7393
▁ایرو	-10.7399
che	-10.7412
▁چینیوں	-10.743
▁سوئچ	-10.7444
▁سپلائی	-10.7444
▁گریجویشن	-10.7444
▁گھنٹوں	-10.7444
▁گھوڑے	-10.7444
▁مادے	-10.7444
▁جارہی	-10.7444
▁کلارک	-10.7445
▁بروکلین	-10.7445
▁پہنتے	-10.7446
▁1913	-10.7449
▁ناک	-10.745
▁دق	-10.745
▁کتا	-10.745
▁گزرنے	-10.745
▁گاہوں	-10.7455
▁بیٹھ	-10.7457
▁لہروں	-10.7458
▁ہاکی	-10.7459
▁نشانات	-10.7463
▁کرلیا۔	-10.747
▁ٹیپ	-10.7476
▁ٹیوب	-10.748
▁نیوی	-10.7495
▁ٹاورز	-10.7498
خاص	-10.7498
▁عثمانیوں	-10.7515
▁شہریت	-10.752
▁تفریح	-10.7536
سیٹ	-10.754
▁مشنری	-10.7542
▁Al	-10.7542
▁وولٹ	-10.7544
▁کلور	-10.7552
▁ستم	-10.7559
ɪ	-10.756
▁اصرار	-10.756
▁تصفیہ	-10.756
▁عقیدت	-10.756
▁قاعدہ	-10.756
▁نباتات	-10.756
▁نفاذ	-10.756
▁اوباما	-10.756
▁دھارے	-10.756
▁آرائش	-10.7561
▁اسہال	-10.7561
▁ہلکے	-10.7561
▁ٹرام	-10.7562
▁بناء	-10.7562
▁کیریبین	-10.7562
▁پگھلنے	-10.7562
▁دکھائی	-10.7563
▁کیوبا	-10.7563
▁چکر	-10.7563
▁اعصابی	-10.7564
▁1947	-10.7564
▁ٹٹو	-10.7568
▁عبدال	-10.7569
میگنیٹ	-10.7572
0,000	-10.7573
▁رسل	-10.7573
sc	-10.7576
▁آلے	-10.7578
▁حکمرانوں	-10.7589
▁سوویتوں	-10.7591
▁مرنے	-10.7595
▁پیروکاروں	-10.7597
ادی	-10.7604
▁حکومتی	-10.761
▁ہاس	-10.7619
▁خوش	-10.762
con	-10.7626
▁فرقوں	-10.7641
▁فصل	-10.7641
▁پیروکار	-10.7641
▁تم	-10.7658
▁نیدرلینڈ	-10.7658
سلاو	-10.7667
▁شاخوں	-10.767
▁بنا۔	-10.7671
▁جاپانیوں	-10.7672
2،000	-10.7675
▁وہیل	-10.7677
▁راج	-10.7678
▁استثنا	-10.7678
▁تبصرہ	-10.7678
▁مناظر	-10.7678
▁نامعلوم	-10.7678
▁ڈنمارک	-10.7678
▁گنجائش	-10.7678
▁ہوچکی	-10.7678
▁سنہری	-10.7678
▁ماڈیول	-10.7678
▁کیوبزم	-10.7678
▁محور	-10.7678
▁دکھائے	-10.7679
▁کھاتے	-10.7681
▁1925	-10.7684
ke	-10.7685
▁1890	-10.769
▁موسمی	-10.7691
▁چیزیں	-10.7696
so	-10.7697
وسس	-10.7698
▁گیر	-10.7701
▁1500	-10.771
▁تخلیقی	-10.7711
-3	-10.7717
▁مردہ	-10.7718
▁اسٹیو	-10.7729
▁لاجز	-10.7732
▁لیڈی	-10.7734
ٹیٹ	-10.7745
▁فائلوں	-10.7761
▁بھائیوں	-10.7764
▁بدنام	-10.7772
▁ریجن	-10.7776
▁ملازم	-10.7793
▁متغیر	-10.7794
▁بوناپارٹ	-10.7797
▁دہندگان	-10.7797
▁فسادات	-10.7797
▁لیفٹیننٹ	-10.7797
▁مرطوب	-10.7797
▁ممنوع	-10.7797
▁گہرے	-10.7797
▁اینگلیکن	-10.7797
▁ہوجاتے	-10.7797
▁انٹرویو	-10.7797
▁ناممکن	-10.7797
▁ایڈمرل	-10.7797
▁مزاج	-10.7797
▁آرگنائزیشن	-10.7797
جسے	-10.7799
تو	-10.7799
▁اخلاقیات	-10.7803
▁قیمتی	-10.7805
▁کینٹن	-10.781
▁1830	-10.7814
یئنز	-10.7825
▁کنٹرولر	-10.7828
▁کھل	-10.7828
▁کارگو	-10.7828
▁آرکائیوز	-10.7831
▁فصلوں	-10.7835
▁وفاداری	-10.7838
▁بلاکس	-10.7839
▁چینلز	-10.7861
▁جونز	-10.7872
ومین	-10.788
▁ایون	-10.7882
ہین	-10.7884
▁دہی	-10.79
▁(12	-10.7901
▁ولیمز	-10.7905
▁سیکس	-10.7912
▁ناراض	-10.7916
▁منصب	-10.7917
▁نمائندے	-10.7917
▁وابستگی	-10.7917
▁دھکیل	-10.7917
▁کمپیکٹ	-10.7917
▁حیات	-10.7918
▁فائز	-10.7919
▁مایوس	-10.792
▁ملیشیا	-10.792
▁بنگال	-10.7923
▁یکم	-10.7924
▁بائیں	-10.7925
▁ستنداریوں	-10.7926
▁فائی	-10.7927
▁سربیا	-10.7932
▁موجد	-10.7935
▁واقعی	-10.7949
od	-10.795
ترا	-10.7952
ینس	-10.7961
▁تحریکوں	-10.7968
br	-10.7975
ویر	-10.7983
▁43	-10.7984
▁ایڈی	-10.8017
ویئر	-10.8018
▁اسکالر	-10.8019
▁قبائلی	-10.8021
بعد	-10.8022
▁بارہ	-10.803
▁افادیت	-10.8039
▁ایتھوپیا	-10.8039
▁فرنچائز	-10.8039
▁میکینٹوش	-10.8039
▁مجھے	-10.8039
▁1911	-10.8039
▁قطر	-10.8039
▁سویڈن	-10.8039
▁لڑکوں	-10.8039
▁کیمسٹری	-10.804
▁مفادات	-10.8041
▁جملے	-10.8041
▁تولید	-10.8044
▁اگلی	-10.8047
▁تنقیدی	-10.8048
▁سنگین	-10.8052
▁(11	-10.8052
▁نالی	-10.8056
▁ہب	-10.8066
ایل	-10.8073
▁قرضوں	-10.8075
▁ایبل	-10.8084
▁نیپ	-10.8084
▁ساختی	-10.81
یرو	-10.8101
▁انڈر	-10.811
▁کھیلے	-10.8131
ائڈس	-10.8136
▁ہاؤسز	-10.8143
▁رسی	-10.815
▁مختص	-10.8151
بشمول	-10.8156
▁گھوم	-10.8159
▁ڈیسک	-10.816
á	-10.8163
لامحدود	-10.8163
▁آدھے	-10.8163
▁آکسیجن	-10.8163
▁روزمرہ	-10.8163
▁نمائندہ	-10.8163
▁انفارمیشن	-10.8163
▁پتلی	-10.8163
▁پندرہویں	-10.8163
▁ریٹائر	-10.8163
▁رگبی	-10.8163
▁ڈرامہ	-10.8163
▁پلاسٹک	-10.8163
▁ابتداء	-10.8163
▁نامیبیا	-10.8164
▁ریسلنگ	-10.8165
▁جلتی	-10.8165
▁پہننے	-10.8167
▁شوہر	-10.8169
▁1934	-10.817
▁فرمان	-10.8172
▁تائی	-10.8172
پان	-10.8195
▁باغیوں	-10.8196
▁تینوں	-10.8201
▁کھیلتی	-10.8202
▁برآمدات	-10.8229
▁ماسکو	-10.8246
▁بچا	-10.8258
▁(8	-10.8273
▁فونٹ	-10.8278
▁رائٹس	-10.828
ī	-10.8288
▁انتباہ	-10.8288
▁رضاکارانہ	-10.8288
▁قاصر	-10.8288
▁مثلث	-10.8288
▁محاذ	-10.8288
▁ڈپارٹمنٹ	-10.8288
▁پائپ	-10.8288
▁آتش	-10.8288
▁سباق	-10.8288
▁سیاق	-10.8288
▁قوس	-10.8292
▁1929	-10.8293
▁1927	-10.8293
▁پانچواں	-10.8293
▁سنت	-10.8294
▁فوسل	-10.8295
▁گرافی	-10.8298
▁فلمی	-10.8303
▁ڈاٹ	-10.8307
▁کانسی	-10.8308
▁میٹنگ	-10.8318
▁عہدوں	-10.8335
▁چوری	-10.8338
,000،	-10.8346
▁برو	-10.8347
▁ڈیجی	-10.8353
▁سنگلز	-10.8367
فن	-10.838
ub	-10.8382
▁ارل	-10.8387
▁ایش	-10.8407
100	-10.8408
ٰ	-10.8411
▁بازیافت	-10.8414
▁بریگیڈ	-10.8414
▁روزویلٹ	-10.8414
▁ریزولوشن	-10.8414
▁شرکاء	-10.8414
▁قطع	-10.8414
▁ٹھنڈا	-10.8414
▁1909	-10.8414
▁1924	-10.8414
▁بلقان	-10.8414
▁ونڈسر	-10.8415
▁داغ	-10.8415
▁موزوں	-10.8415
▁پرسکون	-10.8415
▁جلتے	-10.8416
▁ہٹلر	-10.8417
▁پوچھ	-10.8417
▁لکیری	-10.8418
▁ڈرا	-10.8418
▁سمجھتا	-10.842
▁بچایا	-10.8422
▁امپ	-10.8423
▁لسانیات	-10.8424
▁گنتی	-10.8426
-15	-10.8426
▁سوالات	-10.8432
▁بینر	-10.8463
▁ووٹنگ	-10.8479
-12	-10.8482
▁لوٹ	-10.8489
▁فلسفیوں	-10.8493
▁لائٹس	-10.8496
▁موم	-10.8503
ill	-10.8505
▁سینٹرل	-10.851
▁طرفہ	-10.851
▁کمائی	-10.8519
ber	-10.8528
▁آیا۔	-10.8537
-16	-10.8538
▁کارکن	-10.8542
λ	-10.8543
▁اعمال	-10.8543
▁اپارٹمنٹ	-10.8543
▁تبادلے	-10.8543
▁تعاقب	-10.8543
▁شکایت	-10.8543
▁کنفیڈریٹ	-10.8543
▁وائلڈ	-10.8543
▁بھارت	-10.8543
▁شاذ	-10.8543
▁آجر	-10.8544
▁اڑنے	-10.8546
▁ریئل	-10.8548
▁1933	-10.8549
▁اٹھانے	-10.855
▁1853	-10.8553
▁چارلز	-10.8555
وکو	-10.8557
▁ڈاون	-10.8569
سب	-10.8577
ang	-10.8587
▁ڈوم	-10.8591
▁ملنے	-10.8594
یلیا	-10.8594
▁تیر	-10.86
▁بلندی	-10.8614
▁بلو	-10.862
▁برتن	-10.8636
lu	-10.8641
▁ٹائی	-10.8643
▁مشیر	-10.8644
▁لتھوانیا	-10.8671
▁انسائیکلوپیڈیا	-10.8673
▁دعوے	-10.8673
▁غربت	-10.8673
▁نصاب	-10.8673
▁ورثہ	-10.8673
▁گورباچوف	-10.8673
▁مادری	-10.8673
▁گھیر	-10.8673
▁ٹھیک	-10.8673
▁سوڈان	-10.8673
▁جملہ	-10.8674
▁بیلجیم	-10.8674
▁ٹیکنک	-10.8676
▁1951	-10.8677
فیر	-10.8679
▁ہوگئیں۔	-10.8683
▁عہدہ	-10.8684
▁200،000	-10.869
▁سرو	-10.87
▁پہن	-10.8712
▁250	-10.8713
▁بریک	-10.8733
▁اش	-10.8734
جنگ	-10.876
▁ہاک	-10.8767
▁ریکارڈوں	-10.8773
▁ووٹوں	-10.878
▁عقلی	-10.8782
▁کینیڈی	-10.8795
▁کامکس	-10.8799
▁ASCII	-10.8804
▁تجاوز	-10.8804
▁فیمیکوم	-10.8804
▁مسجد	-10.8804
▁ٹکڑوں	-10.8804
▁انصاف	-10.8804
▁جاسکتے	-10.8804
▁لڑکیوں	-10.8804
▁عصر	-10.8804
▁بالغوں	-10.8804
▁پیسے	-10.8805
▁کیپلا	-10.8807
▁فیملی	-10.8808
▁گلوبل	-10.8811
▁1848	-10.8817
▁سنبھالنے	-10.8817
▁میسنک	-10.8818
▁لائے	-10.8819
▁پرائم	-10.8821
▁گلیشیئرز	-10.8824
▁فورم	-10.8827
▁پنکھوں	-10.883
▁ماڈلز	-10.8832
▁میچوں	-10.8833
▁سوٹ	-10.8843
▁کاؤنٹر	-10.8844
▁49	-10.8847
▁بیکر	-10.8872
▁بلا	-10.8874
▁ماؤ	-10.8896
▁ٹینک	-10.8899
▁تہواروں	-10.8903
▁حفاظتی	-10.891
▁گلیشیئر	-10.8917
▁ارجنٹائن	-10.8937
▁لیورپول	-10.8937
▁مشاورت	-10.8937
▁ملائیشیا	-10.8937
▁پنسلوانیا	-10.8937
▁ایکسپریس	-10.8937
▁لاکھوں	-10.8937
▁ویٹیکن	-10.8937
▁کرافٹ	-10.8938
▁ٹیونز	-10.8938
▁برائن	-10.8938
▁دوستانہ	-10.894
▁ڈسٹنی	-10.8941
ولوجیکل	-10.8941
▁شاپنگ	-10.8943
▁دھاتی	-10.8949
▁ہیکٹر	-10.8953
▁ٹچ	-10.8957
▁رینک	-10.8967
▁لفٹیں	-10.897
▁لگائی	-10.8973
▁قدمی	-10.8974
▁ملا۔	-10.9006
پہلے	-10.9008
بورو	-10.9017
▁راہب	-10.904
▁جیتے	-10.9049
▁سازوں	-10.9057
▁گھرا	-10.9066
▁اختلاف	-10.9068
tes	-10.9069
▁ارادے	-10.9073
▁نقشہ	-10.9073
▁چڑیا	-10.9073
▁1907	-10.9073
▁پالرمو	-10.9073
▁ہمارے	-10.9073
▁مجرمانہ	-10.9074
▁میڈرڈ	-10.9074
▁خوراک	-10.9074
▁اٹھائے	-10.9075
▁پرامن	-10.9075
▁مائیکرو	-10.9076
▁سسلی	-10.9078
▁1855	-10.9085
▁سرحدی	-10.9086
▁De	-10.9088
▁برازیلیا	-10.9091
▁کریمیا	-10.9092
▁ایپی	-10.9094
▁روکتا	-10.9095
▁بیج	-10.9107
▁راہ	-10.9111
▁میلان	-10.9122
▁بمبار	-10.9139
▁پٹی	-10.9146
لاطینی	-10.9157
▁ریفری	-10.9161
▁ہونی	-10.9166
ans	-10.9166
▁دھاتوں	-10.9171
▁میٹل	-10.9175
▁شاہ	-10.9178
▁لینگ	-10.9189
▁کیمیکل	-10.9191
▁800	-10.9192
▁بانٹ	-10.9195
کوپن	-10.9197
▁مالیکیول	-10.9198
▁پلاٹ	-10.9201
▁میگا	-10.9205
▁عربوں	-10.9208
آرکیٹیکچر	-10.9209
مبا	-10.9209
ο	-10.921
▁اطمینان	-10.921
▁انفراسٹرکچر	-10.921
▁اونچے	-10.921
▁ایمسٹرڈیم	-10.921
▁شعبہ	-10.921
▁فیصلوں	-10.921
▁مراعات	-10.921
▁مشورے	-10.921
▁ٹکڑا	-10.921
▁پبلشر	-10.921
▁کھڑکی	-10.921
▁ہجوم	-10.921
▁فوربس	-10.921
▁دادا	-10.921
▁نیپولین	-10.921
▁آئرن	-10.9211
▁ہسٹری	-10.9212
▁آگاہ	-10.9212
لوجسٹ	-10.9212
▁ماپا	-10.9218
▁شرمن	-10.9218
▁اسٹیون	-10.9221
▁تنظیمیں	-10.9221
▁لوئی	-10.9227
▁گرڈ	-10.9242
▁نوعمروں	-10.9246
▁تھامسن	-10.9255
▁سیاحتی	-10.9268
▁شہرت	-10.927
لیف	-10.9271
▁ڈیوس	-10.9286
▁لنکن	-10.9288
▁کیریئرز	-10.929
▁پیٹرک	-10.9297
▁گرفتاری	-10.93
bo	-10.9308
▁شیک	-10.931
▁اڑ	-10.932
لورین	-10.9323
gu	-10.9336
ι	-10.9348
▁تحسین	-10.9348
▁جھنڈا	-10.9348
▁دائیں	-10.9348
▁مجسمے	-10.9348
▁محروم	-10.9348
▁مکوڑوں	-10.9348
▁سمفونی	-10.9348
▁کیمبرج	-10.9348
▁پروسیسر	-10.9348
▁اندوز	-10.9349
▁دراز	-10.9349
▁170	-10.9349
▁اوزار	-10.9349
▁سبسڈی	-10.9349
▁چاول	-10.9349
▁فہم	-10.935
▁جمناسٹکس	-10.935
▁وارنر	-10.9353
▁PS	-10.9357
▁1871	-10.9359
▁موری	-10.9363
▁ہٹنے	-10.9365
wa	-10.9368
لیکن	-10.9387
▁سمجھا۔	-10.9388
▁استوا	-10.9389
▁600	-10.9397
الک	-10.941
▁مزدور	-10.9428
ov	-10.9433
▁نوعمر	-10.9452
▁ماحولیات	-10.9465
▁ذیل	-10.9465
▁اسٹریم	-10.9482
▁کاؤنٹ	-10.9482
▁ڈرم	-10.9488
▁ضائع	-10.9489
▁علامات	-10.9489
▁ناپسندیدہ	-10.9489
▁پیچیدگی	-10.9489
▁خراج	-10.9489
▁ایتھنز	-10.9489
▁سراغ	-10.9489
▁میکانکس	-10.9489
▁خوشحال	-10.9489
▁شریف	-10.9489
▁اسکواڈرن	-10.949
▁ترجمان	-10.949
▁بائ	-10.949
▁ورجن	-10.9495
▁واچ	-10.9496
▁توڑنے	-10.9497
▁ڈینس	-10.9506
▁تفصیلی	-10.9508
▁سڑکیں	-10.9513
▁اسکیل	-10.9522
▁درجن	-10.9526
▁کھال	-10.9547
▁کرانے	-10.9549
▁ہورن	-10.9554
ard	-10.9557
▁گلیوں	-10.956
▁چیمپئنز	-10.9568
ism	-10.957
▁روٹر	-10.9571
▁تاروں	-10.9574
▁جلاوطنی	-10.9576
▁مارکیٹنگ	-10.9579
▁میدانوں	-10.9579
▁چوٹیوں	-10.96
▁ہولڈ	-10.9601
▁خریدی	-10.9614
حکومت	-10.9618
▁انڈی	-10.9622
▁بزرگ	-10.9632
▁طلاق	-10.9632
▁قحط	-10.9632
▁مہینہ	-10.9632
▁شیعہ	-10.9632
▁سککوں	-10.9632
▁قیاس	-10.9632
▁مہلک	-10.9632
▁پرجوش	-10.9633
▁سوان	-10.9633
▁بھاپ	-10.9633
▁خمیر	-10.9634
▁1921	-10.9637
▁فنگس	-10.9637
▁پہنے	-10.964
▁تیرہ	-10.9643
▁مارجن	-10.9645
▁صفت	-10.9645
▁دیکھتا	-10.9651
▁ہیومن	-10.9654
▁حلف	-10.9656
▁منطقی	-10.9667
▁ہینڈل	-10.967
▁پلانک	-10.9676
▁امکانات	-10.968
▁کامل	-10.9685
پارٹ	-10.969
▁مقررہ	-10.9691
▁Re	-10.9705
▁گولڈن	-10.9713
io	-10.9717
▁ہلز	-10.9719
▁میڈل	-10.9727
▁کرایا۔	-10.9729
▁بلڈ	-10.9736
ینڈر	-10.976
▁ایئرکرافٹ	-10.9777
▁بالادستی	-10.9777
▁جارحانہ	-10.9777
▁دعووں	-10.9777
▁سولہویں	-10.9777
▁طرازی	-10.9777
▁سویڈش	-10.9777
▁فخر	-10.9777
▁ہلاکتوں	-10.9777
▁فائٹر	-10.9777
▁لارنس	-10.9777
▁پروڈکٹ	-10.9777
▁ہیلنسٹک	-10.9777
▁لچکدار	-10.9777
▁بستر	-10.9779
▁پائن	-10.978
▁سیکھا	-10.978
▁گاڑیاں	-10.978
/'	-10.9781
▁ڈسٹ	-10.9782
ریاس	-10.9785
▁ہلکی	-10.9788
▁مالیکیولر	-10.9789
▁کلیسیا	-10.9791
▁نووا	-10.9794
▁لگے	-10.9796
▁ٹکٹ	-10.9797
▁کیمیکلز	-10.9798
▁نکالا	-10.9812
▁کریک	-10.9814
▁بمباروں	-10.9817
جیم	-10.9827
بنگ	-10.9835
▁نشستوں	-10.9836
▁بارٹس	-10.9855
▁پھٹ	-10.9859
ٹیج	-10.9878
▁دیوی	-10.9883
لاؤ	-10.9892
oc	-10.99
▁وارڈ	-10.9903
▁بیلی	-10.9911
▁باغی	-10.9922
▁اطراف	-10.9924
▁انشورنس	-10.9924
▁برتری	-10.9924
▁تجریدی	-10.9924
▁تضاد	-10.9924
▁دھماکہ	-10.9924
▁فیوژن	-10.9924
▁مارگریٹ	-10.9924
▁معاوضہ	-10.9924
▁منجمد	-10.9924
▁کنزرویٹو	-10.9924
▁ماڈرن	-10.9924
▁دودھ	-10.9924
▁فزکس	-10.9924
▁بیلاروس	-10.9924
▁کروشیا	-10.9925
▁اینڈریو	-10.9925
▁کاٹنے	-10.9927
▁1928	-10.9929
▁چلائے	-10.9929
▁1898	-10.9937
ry	-10.9939
▁ارضیاتی	-10.9941
▁ہرٹز	-10.9943
▁پہچانا	-10.9945
▁وکٹر	-10.9954
ver	-10.9963
▁بینکنگ	-10.997
▁نیش	-10.9974
▁جڑی	-10.9974
فری	-10.9985
▁Ba	-10.9986
▁معماروں	-10.9987
AC	-10.9995
▁Li	-10.9998
▁گرافک	-11.0004
▁چیٹ	-11.0022
▁سازش	-11.0039
▁مائیک	-11.0046
▁سرگرم	-11.0047
میک	-11.0049
▁جات	-11.0057
tt	-11.0066
ä	-11.0073
−	-11.0073
▁آئسوٹوپ	-11.0073
▁آکسائیڈ	-11.0073
▁تنصیب	-11.0073
▁کشیدگی	-11.0073
▁مرضی	-11.0073
▁کپڑوں	-11.0073
▁گوتم	-11.0074
▁الجھن	-11.0074
▁پھنس	-11.0074
▁دعا	-11.0075
▁ہارورڈ	-11.0075
▁کاپٹر	-11.008
▁میڈیم	-11.0081
▁مادیت	-11.0083
▁سود	-11.0083
▁دلائی	-11.0089
▁پہاڑیوں	-11.0095
▁ڈیلٹا	-11.0098
▁1850	-11.0105
میا	-11.0115
▁موٹی	-11.0124
▁بندوقوں	-11.0128
du	-11.0138
▁متاثرین	-11.0143
yl	-11.0146
▁پیئر	-11.0155
▁شیو	-11.0177
▁دوستوں	-11.0193
▁66	-11.0194
▁لوپ	-11.0204
ive	-11.0213
نون	-11.0213
▁ڈھک	-11.0214
▁باؤ	-11.0218
▁لکیر	-11.0221
▁واقف	-11.0223
ρ	-11.0225
▁اثنا	-11.0225
▁اعتدال	-11.0225
▁انٹارکٹک	-11.0225
▁جھنڈے	-11.0225
▁خوفزدہ	-11.0225
▁لمیٹڈ	-11.0225
▁محاصرہ	-11.0225
▁پوشیدہ	-11.0225
▁ہنگامی	-11.0225
▁قیصر	-11.0225
▁پلازہ	-11.0225
▁انخلا	-11.0225
▁گائیڈ	-11.0225
▁کیپیٹل	-11.0225
▁دوگنا	-11.0225
▁مورفولوجی	-11.0226
▁بیوہ	-11.0226
▁نیشنز	-11.0226
▁1908	-11.0228
▁ہارمون	-11.0228
▁دریں	-11.0229
▁ٹیلیفون	-11.0229
▁لوئر	-11.0233
▁کیپسیٹرز	-11.0236
▁عین	-11.0236
▁پینٹنگ	-11.0237
▁In	-11.0239
سابقہ	-11.0269
▁Se	-11.0281
▁دستیابی	-11.0282
▁ہاورڈ	-11.0286
▁رجحانات	-11.03
▁منعقدہ	-11.031
▁ہرن	-11.0318
▁سیلز	-11.0327
▁گناہ	-11.0327
▁فارمیٹس	-11.0328
▁کاسٹیل	-11.0329
▁جایا	-11.033
▁ڈچی	-11.0339
وسکی	-11.0347
وجین	-11.0352
▁بائیوٹک	-11.036
ه	-11.0379
▁استحصال	-11.0379
▁درحقیقت	-11.0379
▁رقبے	-11.0379
▁مدعو	-11.0379
▁مسیسیپی	-11.0379
▁مکانات	-11.0379
▁میتھوڈسٹ	-11.0379
▁نقاد	-11.0379
▁مندرجہ	-11.0379
▁آڈیشن	-11.0379
▁1854	-11.0379
▁بیداری	-11.0379
▁بقا	-11.0379
▁انسٹال	-11.0379
▁پرجیوی	-11.0379
▁سٹائن	-11.038
▁دبانے	-11.0381
▁منیجر	-11.0381
▁ریاضیاتی	-11.0381
▁مبصرین	-11.0382
▁اشتہارات	-11.0382
▁سائمن	-11.0383
▁ایبیریا	-11.0383
▁شماریاتی	-11.0384
▁جوڑتی	-11.0385
▁بریوری	-11.0385
▁لٹل	-11.0385
▁پسندانہ	-11.0386
▁ضمنی	-11.0393
▁پڑے	-11.0394
op	-11.0397
▁رہیں	-11.0411
▁لاش	-11.0412
sp	-11.0416
▁دیکھے	-11.0417
▁سلیم	-11.043
▁بربر	-11.0431
▁تل	-11.0432
▁امام	-11.0434
▁پروڈکشنز	-11.0435
پیدائش	-11.0438
غیر	-11.0441
-5	-11.0446
▁درمیانے	-11.045
▁لارڈز	-11.0453
▁فلپس	-11.0456
▁مالیت	-11.0463
▁سمندروں	-11.0482
▁پیٹرن	-11.0487
فت	-11.0501
▁کرے۔	-11.0516
فیلڈ	-11.0528
ς	-11.0535
▁capacitor	-11.0535
▁افسردگی	-11.0535
▁افقی	-11.0535
▁ایلومینیم	-11.0535
▁بخود	-11.0535
▁بلغاریہ	-11.0535
▁صوابدید	-11.0535
▁لمبے	-11.0535
▁مباحثے	-11.0535
▁پلائموتھ	-11.0535
▁اینلیڈس	-11.0535
▁ریزورٹ	-11.0535
▁آرکٹک	-11.0535
▁مجاز	-11.0535
▁نظریے	-11.0535
▁ہیرالڈ	-11.0536
▁علامتوں	-11.0538
▁ایڈیسن	-11.0538
▁گونج	-11.0539
▁1932	-11.0544
▁AD	-11.0544
▁فوت	-11.0546
ff	-11.0548
▁ملٹری	-11.055
▁آپشن	-11.0551
▁جماعتیں	-11.0551
▁ڈومینک	-11.0555
▁چٹانوں	-11.056
▁فلسطین	-11.056
ana	-11.0566
com	-11.0567
▁وائن	-11.0572
5)	-11.0577
▁سیزر	-11.0579
▁جیتا۔	-11.0582
▁یونٹوں	-11.0583
▁آبی	-11.0585
▁رہن	-11.0593
▁اسٹیپ	-11.0596
▁فریڈم	-11.0605
بلز	-11.0607
▁بیمار	-11.0608
▁122	-11.0611
▁اپنایا۔	-11.0614
su	-11.0623
▁ترکوں	-11.0625
کیم	-11.0625
▁لیول	-11.0627
▁شارٹ	-11.0647
▁سیاستدان	-11.0657
▁مائن	-11.0657
*	-11.0694
▁Schwarzenegger	-11.0694
▁اجارہ	-11.0694
▁احاطے	-11.0694
▁اکنامک	-11.0694
▁تجزیے	-11.0694
▁محیط	-11.0694
▁مراٹھا	-11.0694
▁کمپیوٹنگ	-11.0694
▁یادداشت	-11.0694
▁ادراک	-11.0694
1،000	-11.0694
▁آبدوز	-11.0694
▁انٹرسٹیٹ	-11.0694
▁کرائے	-11.0694
▁سندھ	-11.0694
▁وارث	-11.0695
▁ڈیوٹی	-11.0696
▁بریڈ	-11.0696
▁پالتو	-11.0696
گول	-11.0697
▁بلایا	-11.0707
▁اداکارہ	-11.071
▁حسین	-11.0711
▁گلوکارہ	-11.0715
▁ریڈار	-11.0717
ٹینا	-11.0718
▁30،000	-11.0722
▁سروسز	-11.0733
ھو	-11.0734
▁بیجوں	-11.0738
▁کامیڈی	-11.074
▁فش	-11.0746
▁سچ	-11.0749
▁فیکٹریوں	-11.0754
za	-11.0784
▁کہانیوں	-11.0827
▁خودمختار	-11.083
▁لوگو	-11.0832
▁چوٹ	-11.0839
ev	-11.0845
ris	-11.0845
▁XXIII	-11.0855
▁احمد	-11.0855
▁اعضاء	-11.0855
▁افلاطون	-11.0855
▁اپوزیشن	-11.0855
▁بالواسطہ	-11.0855
▁تشہیر	-11.0855
▁تفتیش	-11.0855
▁عجائب	-11.0855
▁لطیفہ	-11.0855
▁ماتحت	-11.0855
▁متوازن	-11.0855
▁متوسط	-11.0855
▁مقالے	-11.0855
▁کیٹالان	-11.0855
▁پٹریوں	-11.0855
▁فروش	-11.0855
▁مقدونیائی	-11.0856
▁کلوگرام	-11.0856
pr	-11.0857
▁کرسمس	-11.0858
▁ہائپر	-11.0858
▁تاریک	-11.0858
▁حساسیت	-11.0859
▁موزیکوں	-11.086
▁ٹائٹو	-11.0862
▁سرگرمیاں	-11.0864
▁جائزے	-11.0866
▁1857	-11.0868
▁رپورٹس	-11.0873
▁ڈیموکریٹس	-11.0874
▁کلچر	-11.0874
▁نوشی	-11.0877
▁گزارا	-11.0878
▁مظاہروں	-11.0882
▁20،000	-11.0884
▁سلور	-11.0887
▁Po	-11.0893
▁کرکٹ	-11.09
▁حالتوں	-11.09
▁ٹینس	-11.0901
▁وائڈ	-11.0908
▁بھیجی	-11.0913
▁ڈویژنوں	-11.0915
▁جلاوطن	-11.0918
▁ڈرائیور	-11.093
▁(13	-11.093
امریکی	-11.0965
▁بنتے	-11.0966
▁پیرو	-11.0966
▁ترجیحی	-11.0969
▁جوڑی	-11.097
▁فیم	-11.0977
der	-11.099
US	-11.0996
▁تاثر	-11.0997
▁سیلون	-11.1005
æ	-11.1019
!	-11.1019
▁برانچ	-11.1019
▁تبصرے	-11.1019
▁تعصب	-11.1019
▁تمباکو	-11.1019
▁خلاصہ	-11.1019
▁شاہراہ	-11.1019
▁مدرسوں	-11.1019
▁ممالیہ	-11.1019
▁ہیمپشائر	-11.1019
▁اسٹینڈرڈ	-11.1019
▁زیلڈا	-11.1019
▁کارپوریٹ	-11.1019
▁وائلن	-11.1019
▁ریشوں	-11.1019
▁فادر	-11.1019
▁دیہات	-11.102
▁جڑواں	-11.102
▁درستگی	-11.1022
▁جارجیائی	-11.1023
▁ٹیکنیکل	-11.1026
vo	-11.1027
▁زہر	-11.103
▁پھیلانے	-11.1035
▁2.0	-11.1036
▁40،000	-11.1038
▁1865	-11.1038
▁1.2	-11.104
▁ووٹرز	-11.1042
EC	-11.1043
▁شاخیں	-11.1052
انٹو	-11.1056
▁میکرو	-11.1066
▁یارڈ	-11.1077
▁ٹونی	-11.1079
▁جانتے	-11.1092
▁فریڈی	-11.1102
▁ہس	-11.1103
▁تیس	-11.1109
▁حریفوں	-11.112
▁نیوٹن	-11.1135
▁ایڈم	-11.1136
bu	-11.1142
▁130	-11.1146
▁رینڈ	-11.1152
▁آئیں	-11.1154
▁ڈیموکریٹ	-11.1156
▁کمیونیکیشن	-11.1166
▁ڈسکو	-11.1169
فریڈ	-11.1179
▁اعلامیہ	-11.1186
▁تسلط	-11.1186
▁تناظر	-11.1186
▁رواداری	-11.1186
▁ریگولیٹری	-11.1186
▁عملدرآمد	-11.1186
▁قلعوں	-11.1186
▁مسودہ	-11.1186
▁نفرت	-11.1186
▁ٹیکسٹائل	-11.1186
▁چاہے	-11.1186
▁گھوڑوں	-11.1186
▁کرسچن	-11.1186
▁الہام	-11.1186
▁خادم	-11.1186
▁مرمت	-11.1186
▁کارٹون	-11.1186
▁پیکیج	-11.1187
▁ٹشو	-11.1188
▁مظاہرے	-11.1191
▁خرید	-11.1194
▁فریقین	-11.1195
▁گزرتا	-11.1195
▁مونرو	-11.1201
▁St	-11.1201
▁ورتھ	-11.1206
▁گیٹس	-11.1213
▁جوہان	-11.1215
▁علامتی	-11.1223
▁اسٹرا	-11.1241
▁شپنگ	-11.1245
▁میسی	-11.1246
▁لایا۔	-11.1257
▁پیوس	-11.1263
▁قبرصی	-11.1269
▁اپر	-11.1269
▁گوڈ	-11.1271
ja	-11.1285
▁الیکٹر	-11.1291
▁سرحدیں	-11.1296
▁صد	-11.1319
ko	-11.132
جدید	-11.1329
▁مضافات	-11.133
▁کمیونسٹوں	-11.1338
▁عبد	-11.1342
▁آذربائیجان	-11.1355
▁تجاویز	-11.1355
▁تمغہ	-11.1355
▁تنہائی	-11.1355
▁دائمی	-11.1355
▁مراقبہ	-11.1355
▁مکوڑے	-11.1355
▁پیتھوجین	-11.1355
▁چہرے	-11.1355
▁خروش	-11.1355
▁ٹووالو	-11.1355
▁ملبوس	-11.1355
▁جمالیات	-11.1355
▁حلقوں	-11.1355
▁اسٹیورٹ	-11.1356
▁خاموش	-11.1356
▁معافی	-11.1356
▁اینٹوں	-11.1357
▁1916	-11.1361
▁پکڑنے	-11.1362
▁جلانے	-11.1362
▁لگاتے	-11.1365
▁1839	-11.137
▁قیدی	-11.1373
▁سیریل	-11.1379
▁بھرا	-11.1384
▁پارش	-11.1394
▁مشنریوں	-11.141
▁سیکٹر	-11.1415
▁ایپس	-11.1416
▁تحفظات	-11.1424
▁فلائی	-11.1441
tion	-11.1461
▁شک	-11.1463
▁ملی۔	-11.1481
▁یونٹس	-11.1488
▁سیونگ	-11.149
▁سوگ	-11.1498
▁عثمان	-11.15
▁ڈاکٹروں	-11.1502
▁جینیات	-11.1503
▁سواری	-11.1516
κ	-11.1528
▁اوہائیو	-11.1528
▁عطیات	-11.1528
▁نعرہ	-11.1528
▁ڈسپلے	-11.1528
▁ہماچل	-11.1528
▁آپٹیکل	-11.1528
▁کنواری	-11.1528
▁کلنٹن	-11.1528
▁اسکالرشپ	-11.1528
▁جھوٹ	-11.1528
▁سیلولر	-11.153
روگ	-11.153
▁پرنسپل	-11.153
▁1903	-11.1531
فیکٹ	-11.1532
▁ریڈیکل	-11.1533
▁پابندیاں	-11.1543
▁1836	-11.1543
▁ٹرنر	-11.1543
▁1875	-11.1543
▁بھگ	-11.1543
▁ہماری	-11.1544
▁To	-11.1552
▁روزہ	-11.1555
▁بچہ	-11.1575
▁رش	-11.1576
▁ہیرا	-11.1581
ایف	-11.1589
▁ویٹو	-11.1636
▁عراقی	-11.1641
▁کلین	-11.1651
▁ہیلن	-11.1666
▁فکر	-11.1684
امین	-11.1696
▁الخط	-11.1703
▁امتزاج	-11.1703
▁تقلید	-11.1703
▁سکندر	-11.1703
▁فرنیچر	-11.1703
▁فریکوئنسی	-11.1703
▁مہاکاوی	-11.1703
▁پولرائزیشن	-11.1703
▁ہضم	-11.1703
8،000	-11.1703
▁ایکسچینج	-11.1703
▁گالیشیا	-11.1703
▁1901	-11.1703
▁البلد	-11.1703
▁اسٹڈیز	-11.1703
▁اسپیشل	-11.1703
▁کراؤن	-11.1703
▁مکانی	-11.1703
▁کلینیکل	-11.1704
▁کیوبسٹ	-11.1704
▁نیلسن	-11.1704
▁راجر	-11.1704
▁جھلی	-11.1704
▁پرورش	-11.1704
▁انتونیو	-11.1705
▁سفیر	-11.1705
▁1923	-11.1708
▁ٹرومن	-11.1708
▁متغیرات	-11.171
▁ہمیں	-11.1711
▁بھرپور	-11.1712
°	-11.1713
▁رویہ	-11.1713
▁الٹرا	-11.1715
▁پاتھ	-11.1716
0.8	-11.1723
▁آنکھوں	-11.173
▁کھوج	-11.1733
▁امیج	-11.174
▁چلی	-11.1746
▁ڈالا۔	-11.1759
▁خور	-11.1759
AT	-11.1763
▁شار	-11.183
▁تکنیکوں	-11.1844
▁پیشرو	-11.1857
per	-11.1865
▁رنر	-11.187
▁افسانے	-11.1882
▁جعلی	-11.1882
▁جیواشم	-11.1882
▁زرخیز	-11.1882
▁صفحات	-11.1882
▁فرائض	-11.1882
▁مجسٹریٹ	-11.1882
▁معائنہ	-11.1882
▁یونیفارم	-11.1882
▁کچل	-11.1882
▁پتیوں	-11.1882
▁چھلانگ	-11.1882
▁پورٹیبل	-11.1882
▁مسمار	-11.1882
▁چکے	-11.1882
▁گورننگ	-11.1883
▁1935	-11.1888
▁محرکات	-11.1889
▁فوجیں	-11.1891
▁لیکچرز	-11.1895
▁رسول	-11.1898
▁نبی	-11.1901
▁قبولیت	-11.1903
▁ویلتھ	-11.1905
▁ٹاک	-11.1914
▁ناگ	-11.1914
▁مہر	-11.1919
▁گاہیں	-11.1924
▁ہیگل	-11.1926
▁اسٹارٹ	-11.194
ڈونگ	-11.1944
▁اداکاروں	-11.1964
▁نسلیں	-11.1975
▁گیلن	-11.1984
الیا	-11.1992
▁خانقاہوں	-11.1995
▁ایڈز	-11.2001
▁ڈریک	-11.2004
▁گلڈ	-11.2025
300	-11.2033
▁پھیلی	-11.2046
▁فاؤنڈ	-11.2061
NES	-11.2063
ɛ	-11.2063
▁البانیہ	-11.2063
▁انٹرپرائز	-11.2063
▁اچانک	-11.2063
▁جارحیت	-11.2063
▁طباعت	-11.2063
▁فتوحات	-11.2063
▁ٹرانسکرپشن	-11.2063
▁کوالیفائی	-11.2063
▁ہمسایہ	-11.2063
▁پکچرز	-11.2063
▁بینجمن	-11.2063
▁لیجنڈ	-11.2063
▁دراصل	-11.2063
▁مبہم	-11.2063
▁انرجی	-11.2064
▁کوئلے	-11.2064
▁ترسیل	-11.2064
▁کپتان	-11.2064
▁مکھی	-11.2064
▁کنٹینر	-11.2064
▁وائرلیس	-11.2064
▁کرنل	-11.2065
▁اسپرنگ	-11.2068
▁فنانس	-11.2069
▁باغات	-11.2071
▁بولتا	-11.2072
▁تھور	-11.2073
▁ٹوٹنے	-11.2073
▁موشن	-11.2074
▁سبزیوں	-11.2074
▁گروو	-11.2077
▁1837	-11.2078
▁سمجھے	-11.2079
▁چلاتی	-11.2081
▁ریلیف	-11.2083
▁1810	-11.2083
▁بروز	-11.2094
▁لائسنسنگ	-11.2105
▁مرسی	-11.211
▁ہوئیں۔	-11.2113
be	-11.2114
▁اکاؤنٹس	-11.2114
▁رال	-11.2134
▁مزاحم	-11.2146
▁تصوراتی	-11.2146
▁پلانٹس	-11.2149
▁خوشی	-11.2151
▁جڑوں	-11.2157
▁کریٹ	-11.2159
▁ڈپول	-11.2161
▁کلید	-11.2162
▁تفصیل	-11.2219
▁پنکھ	-11.222
مانی	-11.2236
▁پیپر	-11.2242
▁گہرا	-11.2247
ولیتھک	-11.2248
▁اناطولیہ	-11.2249
▁ایڈمنسٹریشن	-11.2249
▁بیسیلیکا	-11.2249
▁ذائقہ	-11.2249
▁ضابطے	-11.2249
▁عرصہ	-11.2249
▁قزاقوں	-11.2249
▁قزاقی	-11.2249
▁قفقاز	-11.2249
▁مہنگا	-11.2249
▁نوزائیدہ	-11.2249
▁چائنا	-11.2249
▁کفالت	-11.2249
▁احیا	-11.2249
▁طبقہ	-11.2249
▁ناکافی	-11.2249
▁کولمبس	-11.2249
▁1904	-11.2249
▁رونالڈ	-11.2249
▁خطرات	-11.2249
▁دوہری	-11.2249
▁ڈینیوب	-11.2249
▁لپیٹ	-11.2249
▁پردیش	-11.2249
▁کیپٹل	-11.225
▁نجات	-11.225
▁غار	-11.225
▁بلیوارڈ	-11.2252
▁لڑاکا	-11.2253
▁گوگل	-11.2254
▁ریفارمڈ	-11.2254
▁پتے	-11.2258
-8	-11.226
▁کٹائی	-11.226
▁بندوقیں	-11.2263
▁ریب	-11.2271
▁3.5	-11.2281
▁لیوس	-11.2283
▁کمایا	-11.2295
ریکس	-11.23
▁سرکٹس	-11.2306
▁فنکشنل	-11.2312
▁گیمنگ	-11.2318
▁کھیلتا	-11.2325
▁ڈول	-11.2328
▁پوسٹل	-11.2334
▁سستی	-11.2346
▁صفر	-11.2352
▁اربن	-11.2362
NA	-11.2363
▁لگی	-11.2394
پیرس	-11.2423
▁تغیر	-11.243
کانٹینینٹل	-11.2437
▁انکارپوریٹڈ	-11.2437
▁بدامنی	-11.2437
▁ترجمے	-11.2437
▁خوشگوار	-11.2437
▁موزائیک	-11.2437
▁پروموشن	-11.2437
▁پرکشش	-11.2437
▁خزانہ	-11.2437
▁گنبد	-11.2437
▁انتھونی	-11.2437
▁نامکمل	-11.2437
▁جنیوا	-11.2438
▁ٹلسا	-11.2438
▁ڈیجیمون	-11.2438
▁رائفل	-11.2438
▁گراہم	-11.2438
▁آپریٹر	-11.2439
▁نوکری	-11.2439
▁ڈربی	-11.2441
▁ٹرانسفر	-11.2441
▁ہیمبرگ	-11.2443
▁تھرو	-11.2443
▁امیاد	-11.2445
▁سینسر	-11.245
▁1882	-11.2451
▁اتھانیسس	-11.2451
▁Ka	-11.2458
▁فلٹر	-11.2462
▁اہلکاروں	-11.2462
▁انڈیز	-11.2465
▁سربراہان	-11.2469
▁نکات	-11.2479
▁میسنز	-11.2479
▁سانتا	-11.2488
▁برتنوں	-11.2492
▁کک	-11.25
▁عبوری	-11.2509
اگرچہ	-11.2522
موجودہ	-11.2522
▁کامنز	-11.2531
ica	-11.2531
▁ساکھ	-11.2534
▁پراگ	-11.2535
پالی	-11.2537
▁آوازیں	-11.2544
▁Bo	-11.2546
AS	-11.2559
lle	-11.2561
▁ایلیٹ	-11.2562
▁ٹریس	-11.2569
▁ہنر	-11.2605
▁ہوگئیں	-11.2619
▁لینس	-11.2625
▁صوفی	-11.2629
▁آدھی	-11.2629
▁اسٹیبلشمنٹ	-11.2629
▁ایمرجنسی	-11.2629
▁ذرات	-11.2629
▁مطلع	-11.2629
▁مفروضے	-11.2629
▁مہنگے	-11.2629
▁پبلشنگ	-11.2629
▁پختہ	-11.2629
▁ڈھول	-11.2629
▁ہیلینسٹک	-11.2629
▁تھراپی	-11.263
▁1849	-11.263
▁بیچلر	-11.263
▁ڈائمنڈ	-11.263
▁ہجے	-11.263
▁اسپانسر	-11.263
▁بوائے	-11.263
▁1815	-11.263
▁1842	-11.263
▁سڈنی	-11.263
▁نااہل	-11.263
▁رجمنٹ	-11.263
▁شارلٹ	-11.263
▁مخطوطات	-11.263
▁کوئنز	-11.2631
▁جادوگر	-11.2631
▁آرکیڈ	-11.2632
▁تھرڈ	-11.2633
▁شبہات	-11.2633
▁منع	-11.2634
▁لاء	-11.2635
▁بھاگنے	-11.2639
▁جل	-11.2639
▁شیلیوں	-11.2641
▁ولسن	-11.2641
▁1872	-11.2643
▁1847	-11.2644
▁جاسوسی	-11.2645
▁ہڈ	-11.2649
▁آسکر	-11.2651
▁ایڈمز	-11.2656
▁انکوڈر	-11.2656
▁شے	-11.2657
▁فیچر	-11.2657
▁اکائیوں	-11.266
▁Ar	-11.2661
میٹک	-11.2672
▁لینن	-11.2692
▁پگ	-11.2702
▁بیٹل	-11.2734
،500	-11.2738
جرمن	-11.2749
بیو	-11.277
▁Le	-11.2782
ایچ	-11.2791
▁ڈویلپر	-11.2806
▁مشترک	-11.2817
▁اردن	-11.2823
ε	-11.2826
ü	-11.2826
▁پندرہ	-11.2826
▁استثنیٰ	-11.2826
▁برادرز	-11.2826
▁تھوڑی	-11.2826
▁ثقل	-11.2826
▁حادثات	-11.2826
▁سنگاپور	-11.2826
▁لنکاشائر	-11.2826
▁مفروضہ	-11.2826
▁کریٹاسیئس	-11.2826
▁کھدائی	-11.2826
▁ہوجائیں	-11.2826
▁تیرہویں	-11.2826
▁سجایا	-11.2826
▁کمپوزر	-11.2826
▁ٹریاسک	-11.2826
▁کمیونزم	-11.2826
▁مراکش	-11.2826
▁وقار	-11.2826
▁کارٹریج	-11.2826
▁کمپریس	-11.2826
▁وڈیو	-11.2827
▁آگسٹین	-11.2829
▁دلائل	-11.2829
▁دبایا	-11.2829
▁برنارڈ	-11.2831
▁رومانس	-11.2836
▁صفات	-11.2837
▁موج	-11.2843
وئٹ	-11.2845
▁کمیونیکیشنز	-11.2849
▁فکری	-11.2853
]؛	-11.2857
▁پہنچانے	-11.2858
▁1400	-11.2859
▁سنائی	-11.2866
▁حرف	-11.2869
▁سویٹ	-11.2874
▁قبرصیوں	-11.2879
▁ایگل	-11.288
▁پلیئرز	-11.2884
▁عدالتیں	-11.2904
▁ریجنٹ	-11.2908
ju	-11.2934
▁سونپ	-11.2975
گوا	-11.3003
▁آنا	-11.3004
▁استقبال	-11.3024
▁افسانوں	-11.3026
▁الگورتھم	-11.3026
▁بدسلوکی	-11.3026
▁تخمینے	-11.3026
▁خلیفہ	-11.3026
▁سامراجی	-11.3026
▁مدرسہ	-11.3026
▁مستثنیٰ	-11.3026
▁میگاواٹ	-11.3026
▁قسط	-11.3026
▁ناروے	-11.3026
9،000	-11.3026
▁1915	-11.3026
▁دوپہر	-11.3026
▁خودکشی	-11.3026
▁پیڈمونٹ	-11.3026
▁مسخ	-11.3027
ٹونک	-11.3028
▁گورڈن	-11.3029
▁سوترا	-11.3029
▁ڈریگن	-11.303
▁رجسٹریشن	-11.303
▁بھوک	-11.3031
▁ووٹروں	-11.3031
▁جیفری	-11.3032
▁ہالینڈ	-11.3033
mon	-11.3038
▁پروٹسٹنٹزم	-11.3038
▁شوگر	-11.3053
▁1820	-11.3061
▁تکرار	-11.3065
/؛	-11.3067
▁ہک	-11.3075
▁گولف	-11.3082
9,	-11.3099
▁مائنر	-11.31
▁ماؤس	-11.3101
▁Sch	-11.3133
▁فلک	-11.3142
▁ہنس	-11.3158
▁بخار	-11.3225
▁Twilight	-11.323
▁الاباما	-11.323
▁انکوائری	-11.323
▁سعودی	-11.323
▁ورثے	-11.323
▁بیپٹسٹ	-11.323
▁رومانیہ	-11.323
▁وٹامن	-11.323
▁اسپیکٹر	-11.323
▁سیرامک	-11.323
▁پارٹنر	-11.323
▁لڑکے	-11.3231
▁ولیج	-11.3231
▁گھنے	-11.3231
▁شفٹ	-11.3231
▁ٹاسک	-11.3233
▁سنڈے	-11.3233
▁ہستی	-11.3234
▁برکلے	-11.3234
▁مخلوقات	-11.3234
▁اسٹیمپ	-11.3234
▁گلے	-11.3236
▁ایبٹ	-11.3236
▁25،000	-11.3242
▁اتنے	-11.3242
▁ہلکا	-11.3243
▁پیٹرو	-11.3261
▁بارود	-11.3265
▁ڈیوائسز	-11.3275
▁سیاستدانوں	-11.3278
▁میٹرکس	-11.329
بورن	-11.3326
▁پاول	-11.3369
▁بروس	-11.3377
بنیادی	-11.3402
▁ذات	-11.3415
▁مماثل	-11.3431
ó	-11.3438
▁القاعدہ	-11.3438
▁انزائم	-11.3438
▁دواسازی	-11.3438
▁سازوسامان	-11.3438
▁فکسچر	-11.3438
▁لیوپولڈ	-11.3438
▁مطالبات	-11.3438
▁نوادرات	-11.3438
▁ڈیفالٹ	-11.3438
▁کیٹالونیا	-11.3438
▁گفتگو	-11.3438
▁یونیسکو	-11.3438
▁سراہا	-11.3438
▁خواب	-11.3438
▁سرکلر	-11.3438
▁ڈیویڈ	-11.3438
▁تلوار	-11.3438
▁مزار	-11.3439
▁شکوک	-11.344
▁وکیل	-11.344
▁تالیف	-11.344
▁کیمرون	-11.3441
▁عزم	-11.3442
▁1905	-11.3443
▁واٹسن	-11.3444
▁دکھاتے	-11.3444
▁براڈکاسٹنگ	-11.3444
اصل	-11.3445
▁گوانگ	-11.3446
▁کھائی	-11.3447
▁ڈیبیو	-11.3455
▁منزلہ	-11.3461
▁1825	-11.3462
▁1878	-11.3462
▁تاثرات	-11.3467
ical	-11.3467
▁پھیلنے	-11.3469
▁تانگ	-11.3471
▁ٹوپی	-11.3473
▁سائیکلنگ	-11.3491
گرین	-11.3494
▁ٹیمپل	-11.3494
▁1200	-11.3506
▁بھرنے	-11.3513
▁ریپر	-11.3553
▁1600	-11.3556
▁ڈریم	-11.3558
ST	-11.356
▁اشتہار	-11.3592
ھم	-11.3612
▁مریض	-11.3614
▁انگلی	-11.3632
▁پگھل	-11.3647
1.9	-11.3647
▁آٹوموبائل	-11.3651
▁اکیسویں	-11.3651
▁حادثے	-11.3651
▁دانشورانہ	-11.3651
▁رابطوں	-11.3651
▁سپانسر	-11.3651
▁شعلہ	-11.3651
▁طحالب	-11.3651
▁مدرسے	-11.3651
▁پھیپھڑوں	-11.3651
▁چیواہوا	-11.3651
▁کارخانہ	-11.3651
▁ہنگامہ	-11.3651
▁یوٹریچٹ	-11.3651
▁خاکہ	-11.3651
▁زاویہ	-11.3651
▁گالیشین	-11.3651
▁آرنلڈ	-11.3651
▁ہوچکا	-11.3651
▁مرجان	-11.3651
▁سیمینار	-11.3651
▁مبارک	-11.3651
▁ویدک	-11.3651
▁ریشم	-11.3651
▁مترجم	-11.3651
▁استاد	-11.3652
▁منچوریا	-11.3652
▁جوبلی	-11.3652
▁باندھ	-11.3653
▁فشاں	-11.3653
▁کروشین	-11.3653
▁ضمیر	-11.3656
▁سنٹر	-11.3657
▁نسبیت	-11.3659
▁بچاؤ	-11.3661
▁15،000	-11.3662
▁کریول	-11.3662
▁انتون	-11.3663
▁السیس	-11.3665
▁مشیل	-11.3666
▁جادو	-11.3668
▁راجرز	-11.368
▁ٹرک	-11.3689
ٹیبل	-11.3692
▁بدنامی	-11.3695
▁دیکھنا	-11.3698
▁زبردستی	-11.3699
▁برطرفی	-11.3717
3.2	-11.373
▁پیکٹ	-11.3792
▁شم	-11.3808
▁کلون	-11.3836
▁ارضیات	-11.3843
▁ربی	-11.3854
▁مبصر	-11.3864
▁XII	-11.3868
▁افراط	-11.3868
▁بیلجئیم	-11.3868
▁تجزیاتی	-11.3868
▁شعاع	-11.3868
▁شلاچٹا	-11.3868
▁مذکورہ	-11.3868
▁نوشتہ	-11.3868
▁وکٹورین	-11.3868
▁کرسٹوفر	-11.3868
▁گزرگاہ	-11.3868
▁ہبسبرگ	-11.3868
▁ہولوکاسٹ	-11.3868
=	-11.3868
▁جتنا	-11.3868
▁فلائنگ	-11.3868
▁مہنگی	-11.3868
▁ریچرڈ	-11.3868
▁ڈینیئل	-11.3868
▁فلاح	-11.3868
▁ٹوالو	-11.3868
▁ڈونلڈ	-11.3868
▁کاشتکاری	-11.3869
▁مائکروفون	-11.3869
▁ٹوکری	-11.387
▁لٹکا	-11.387
▁مینڈیٹ	-11.387
▁پیٹریاٹ	-11.3871
▁کشمیر	-11.3871
▁ڈاکٹریٹ	-11.3872
▁ریوڑ	-11.3872
▁اورلینز	-11.3872
▁امینو	-11.3873
▁پچاس	-11.3875
▁کھایا	-11.3879
جیانگ	-11.3883
▁ثالثی	-11.3884
▁ناتھ	-11.3884
▁ڈویلپرز	-11.389
▁3.0	-11.3891
▁مرغیوں	-11.3893
▁2500	-11.3895
▁235	-11.3898
▁کاغذات	-11.3901
بہت	-11.3902
▁بابل	-11.3909
▁کلسٹر	-11.3913
▁شاپ	-11.3919
▁ملایا	-11.3921
qui	-11.3967
ide	-11.3974
▁مظاہر	-11.4033
▁مخلوق	-11.4086
▁128	-11.4086
▁رضاکاروں	-11.409
▁سیرکیڈین	-11.409
▁فرڈینینڈ	-11.409
▁لہجے	-11.409
▁مجموعوں	-11.409
▁معاشرہ	-11.409
▁معذور	-11.409
▁مونٹیویڈیو	-11.409
▁پچھلی	-11.409
▁چوڑائی	-11.409
▁کاتالونیا	-11.409
▁گورنمنٹ	-11.409
è	-11.409
▁میتھیو	-11.409
▁ہائبرڈ	-11.409
▁نیچرل	-11.409
▁بٹالین	-11.409
▁تھنڈر	-11.409
▁سرورق	-11.409
صفحہ	-11.409
▁بینڈوتھ	-11.409
▁شیطان	-11.409
▁یوٹاہ	-11.409
▁سرجری	-11.4091
▁ٹنگسٹن	-11.4091
▁جوائنٹ	-11.4091
▁پیشکش	-11.4091
▁افیون	-11.4091
▁ملحد	-11.4091
▁کمپاس	-11.4091
▁Ta	-11.4091
▁ٹیبلٹ	-11.4091
▁سیفٹی	-11.4092
▁دادی	-11.4092
▁خبردار	-11.4092
▁شکنی	-11.4095
▁چلتے	-11.4096
▁بوسنیا	-11.4096
Zn	-11.4099
▁بازاری	-11.4103
▁رخ	-11.4107
▁گزارے	-11.4109
▁مویشیوں	-11.4109
▁فاتحین	-11.4112
▁1833	-11.4113
▁1.1	-11.4118
▁ویلیم	-11.413
▁اشتہاری	-11.4148
2010	-11.4151
▁کمرہ	-11.4156
▁ایکویٹی	-11.4163
▁بودھی	-11.4189
ger	-11.4194
▁پونٹی	-11.4199
1.8	-11.4203
▁لیمب	-11.4211
ven	-11.4212
▁Ne	-11.422
▁ٹائل	-11.4253
▁فلسطینی	-11.4281
▁الما	-11.4296
▁ٹیکنیک	-11.4309
▁گلوب	-11.4309
%	-11.4318
▁ابراہیم	-11.4318
▁استعفے	-11.4318
▁اسماعیل	-11.4318
▁دستکاری	-11.4318
▁عددی	-11.4318
▁قصبہ	-11.4318
▁مذاق	-11.4318
▁معقول	-11.4318
▁منتظمین	-11.4318
▁میکنٹوش	-11.4318
▁نقشے	-11.4318
▁چاہتی	-11.4318
▁کنندگان	-11.4318
▁1906	-11.4318
▁لٹویا	-11.4318
▁محنت	-11.4318
▁مرحوم	-11.4318
▁گارنیشن	-11.4318
▁اجرت	-11.4318
▁خیمہ	-11.4318
▁بہادر	-11.4318
▁پرائیویٹ	-11.4318
▁بالکان	-11.4318
▁چھڑی	-11.4318
▁آریائی	-11.4318
▁پیتل	-11.4318
▁منانے	-11.4319
▁بلوط	-11.432
▁بخارات	-11.4323
▁سیلٹک	-11.4325
▁آنکھیں	-11.4325
ther	-11.4327
▁نواز	-11.4328
▁500،000	-11.4328
▁ہارپر	-11.4329
▁کندہ	-11.4333
▁1776	-11.4334
▁1838	-11.434
▁جنکشن	-11.434
▁پوتے	-11.4343
▁بائٹ	-11.435
▁سوئی	-11.4357
▁رہنا	-11.4362
کبھی	-11.4366
▁پلگ	-11.4372
▁میرٹ	-11.443
je	-11.4441
▁روبی	-11.4475
▁چاک	-11.4493
▁چٹان	-11.4514
امہ	-11.4517
▁اکائی	-11.4518
▁Ju	-11.452
▁کمپن	-11.4521
▁شبہ	-11.4548
▁PAL	-11.455
▁اوبلاست	-11.455
▁اولمپیا	-11.455
▁بسمارک	-11.455
▁بصیرت	-11.455
▁تخمینوں	-11.455
▁ذیابیطس	-11.455
▁قالین	-11.455
▁قاہرہ	-11.455
▁قبیلہ	-11.455
▁مبذول	-11.455
▁مجوزہ	-11.455
▁محتاط	-11.455
▁معتدل	-11.455
▁موسیٰ	-11.455
▁نظارہ	-11.455
▁چوراہے	-11.455
▁خوفناک	-11.455
▁جہتی	-11.455
▁فارچون	-11.455
▁نمٹا	-11.455
▁نفیس	-11.455
▁ڈگلس	-11.455
▁ورجیل	-11.455
▁مادوں	-11.455
▁کررہی	-11.455
▁یریوان	-11.455
▁آفتاب	-11.4551
▁چالیس	-11.4551
▁سنتھیس	-11.4551
▁صوفیانہ	-11.4551
▁سازگار	-11.4552
▁کسٹمر	-11.4552
▁فارورڈ	-11.4553
▁چودہ	-11.4554
▁ہولڈرز	-11.4554
▁جنریٹر	-11.4556
▁مورگن	-11.4559
▁کہانیاں	-11.456
▁ابھرتی	-11.4562
▁MP	-11.4562
▁اسٹریمنگ	-11.4567
▁1835	-11.4567
▁1863	-11.4568
▁1846	-11.457
qu	-11.4571
▁1.3	-11.4578
▁گھرانے	-11.4583
▁پہنچتا	-11.4586
▁شاک	-11.4605
▁ونڈو	-11.463
▁بائیک	-11.4633
▁باتھ	-11.4639
پولیس	-11.4654
▁Da	-11.469
▁آنکھ	-11.4753
▁فیکٹر	-11.4765
à	-11.4788
>	-11.4788
ُ	-11.4788
▁استحقاق	-11.4788
▁امیونولوجی	-11.4788
▁اندھیرے	-11.4788
▁خرگوش	-11.4788
▁سنجیدہ	-11.4788
▁سپاہی	-11.4788
▁شنگھائی	-11.4788
▁شکایات	-11.4788
▁قربت	-11.4788
▁لاپتہ	-11.4788
▁مسدود	-11.4788
▁ولادیمیر	-11.4788
▁کمپوزیشن	-11.4788
▁کولوراڈو	-11.4788
▁استنبول	-11.4788
▁متناسب	-11.4788
▁وایلیٹ	-11.4788
▁ایڈوانس	-11.4788
▁مصور	-11.4788
▁دخل	-11.4788
▁رشوت	-11.4789
▁بائیکاٹ	-11.4789
▁مسوری	-11.4789
▁تیمور	-11.479
▁پارتھین	-11.479
▁لوفتوافے	-11.4791
▁ماہانہ	-11.4793
▁کزن	-11.4794
▁ہانگجو	-11.4794
▁لگائے	-11.4794
▁بوٹیوں	-11.4796
4.8	-11.4797
▁1874	-11.4804
▁1821	-11.4805
▁1877	-11.4806
▁ریجنل	-11.4807
▁الفا	-11.4814
▁1895	-11.4815
▁پام	-11.4836
ome	-11.4854
und	-11.4886
▁شرم	-11.4921
▁ماریو	-11.4994
▁بدعنوان	-11.5001
▁امتحان	-11.5028
▁لچک	-11.5031
ö	-11.5032
▁افراتفری	-11.5032
▁افواہ	-11.5032
▁برہمن	-11.5032
▁بہبود	-11.5032
▁تبلیغ	-11.5032
▁تعمیل	-11.5032
▁دروازہ	-11.5032
▁شاگرد	-11.5032
▁شہزادے	-11.5032
▁لوازمات	-11.5032
▁محکموں	-11.5032
▁منقطع	-11.5032
▁میٹابولک	-11.5032
▁نکولائی	-11.5032
▁وینزویلا	-11.5032
▁چانسلر	-11.5032
▁ڈپریشن	-11.5032
▁کیٹلاگ	-11.5032
▁گاندھی	-11.5032
π	-11.5032
▁ایڈونچر	-11.5032
▁1902	-11.5032
▁زیورات	-11.5032
▁ملتوی	-11.5032
▁وِگ	-11.5032
▁USB	-11.5032
▁کمیونین	-11.5032
▁کردے	-11.5033
▁زہریلا	-11.5033
▁پھوٹ	-11.5033
▁گوریلا	-11.5034
▁ریفارمیشن	-11.5034
ated	-11.5038
▁فولڈ	-11.5038
▁الدین	-11.5038
▁12،000	-11.5039
▁معدومیت	-11.504
▁سمجھتی	-11.5041
▁گود	-11.5043
▁اللہ	-11.5045
▁گرلز	-11.5047
OM	-11.5047
▁1896	-11.5051
▁1889	-11.5052
▁خودکار	-11.5055
▁بیٹھا	-11.5059
ən	-11.506
▁ہاکین	-11.5066
▁فالٹ	-11.5081
نگھم	-11.5104
فرانسیسی	-11.5155
جنوبی	-11.5156
▁قربان	-11.516
▁زخم	-11.5196
▁انکوڈ	-11.5239
▁مائک	-11.527
▁فائن	-11.5275
▁جمناسٹ	-11.528
▁مصلوب	-11.5282
▁half	-11.5282
▁آبزرویٹری	-11.5282
▁الجزائر	-11.5282
▁انتظار	-11.5282
▁اپالاچین	-11.5282
▁تاثیر	-11.5282
▁جغرافیہ	-11.5282
▁لوزیانا	-11.5282
▁مشغول	-11.5282
▁مونٹریال	-11.5282
▁وائکنگ	-11.5282
▁تلافی	-11.5282
▁حقائق	-11.5282
▁فکسڈ	-11.5282
▁موزارٹ	-11.5282
▁میٹھے	-11.5282
▁ڈیسریلی	-11.5282
▁ہوچکے	-11.5282
▁سیڑھی	-11.5282
▁آبادکاروں	-11.5282
▁انجکشن	-11.5282
▁بتاتا	-11.5282
▁ٹرانسفارمر	-11.5282
▁ٹیریٹری	-11.5282
▁تھیوڈور	-11.5282
▁ویگاس	-11.5282
▁رحم	-11.5283
▁شافٹ	-11.5283
▁اسمارٹ	-11.5283
▁پریکٹس	-11.5284
▁جنگجوؤں	-11.5284
▁کیتھرین	-11.5284
▁ننگے	-11.5285
▁ڈیزل	-11.5285
▁کیمرے	-11.5285
▁ٹرپل	-11.5285
▁ڈاؤ	-11.5285
▁ہائپو	-11.5288
▁مردانہ	-11.5289
▁چکن	-11.5291
▁سکہ	-11.5292
▁کیفے	-11.5293
▁توہین	-11.5295
▁چیخ	-11.5299
▁1851	-11.5302
▁سولڈر	-11.5304
▁پرستار	-11.5307
▁ڈراپ	-11.5309
▁1873	-11.5311
▁ناسا	-11.5313
ish	-11.534
ment	-11.5367
▁سلپ	-11.5385
▁وینیل	-11.5426
174	-11.5481
▁فرن	-11.5513
▁لیکچر	-11.5523
▁آگئی	-11.5527
▁انتہا	-11.5537
▁حاکم	-11.5539
ō	-11.5539
▁باویریا	-11.5539
▁بوڑھے	-11.5539
▁تبادلوں	-11.5539
▁تفریق	-11.5539
▁ستاروں	-11.5539
▁ستارہ	-11.5539
▁سمجھوتہ	-11.5539
▁سنجیدگی	-11.5539
▁شہزادوں	-11.5539
▁مترادف	-11.5539
▁نائٹروجن	-11.5539
▁نمائندگان	-11.5539
▁ورچوئل	-11.5539
▁کاربوہائیڈریٹ	-11.5539
ɔ	-11.5539
▁ایڈنبرا	-11.5539
▁نثر	-11.5539
▁ٹوائلٹ	-11.5539
▁پلاٹینم	-11.5539
▁گالیسیا	-11.5539
▁1866	-11.5539
▁ضمیمہ	-11.5539
▁لنکاسٹر	-11.5539
▁ڈرامے	-11.5539
▁سلنڈر	-11.5539
▁مجید	-11.5539
▁ترامیم	-11.5539
▁چیلسی	-11.5539
▁انگلش	-11.5539
▁نازک	-11.5539
▁بھیڑیا	-11.5539
▁نقد	-11.5539
▁جوراسک	-11.5539
▁نیولیتھک	-11.5539
▁شرط	-11.5539
▁ڈونڈا	-11.5539
▁پومپی	-11.554
▁0.2	-11.5541
▁مخطوطہ	-11.5541
▁مشروبات	-11.5541
▁بلانک	-11.5543
▁فاسٹ	-11.5544
▁گھڑیاں	-11.5546
▁منائی	-11.5546
▁جوڑتے	-11.5546
▁بولتی	-11.5548
▁کھینچنے	-11.5548
▁رولینڈ	-11.555
▁نکلنے	-11.5551
▁1894	-11.5555
▁چلاتے	-11.5557
▁رویوں	-11.5561
▁1892	-11.5563
▁شاٹ	-11.5606
▁گریگ	-11.5609
▁سلاٹ	-11.5664
3.8	-11.5671
▁براڈکاسٹر	-11.5693
6.4	-11.5713
اکثر	-11.5719
▁فرانکو	-11.5726
▁ڈب	-11.5728
▁ارون	-11.5778
▁روزگار	-11.5779
▁اتھانیس	-11.5782
▁ٹریپ	-11.5787
í	-11.5802
&	-11.5802
ɑ	-11.5802
▁اراگون	-11.5802
▁جھڑپ	-11.5802
▁ریگولیشن	-11.5802
▁صحافت	-11.5802
▁صحیفوں	-11.5802
▁عجیب	-11.5802
▁عطا	-11.5802
▁غدود	-11.5802
▁فونافوٹی	-11.5802
▁مستند	-11.5802
▁منتشر	-11.5802
▁میسوپوٹیمیا	-11.5802
▁وینچوان	-11.5802
▁چہرہ	-11.5802
▁ڈائیوسیس	-11.5802
▁بدوش	-11.5802
▁امارات	-11.5802
▁تیونس	-11.5802
▁تردید	-11.5802
▁سلائیڈ	-11.5802
▁ٹربیون	-11.5802
▁ایڈولف	-11.5802
▁انسولین	-11.5802
،000،000	-11.5802
▁گلبرٹ	-11.5802
▁پیٹرولیم	-11.5802
▁بکھر	-11.5802
▁سمرسیٹ	-11.5802
▁پٹرولیم	-11.5803
▁ٹرمپ	-11.5804
▁پیپسی	-11.5805
▁نیورونز	-11.5805
▁لتھوانیائی	-11.5806
▁سوشلزم	-11.5807
▁شفاف	-11.5807
▁نارمنڈی	-11.5808
▁انڈوں	-11.581
▁فوسٹر	-11.5811
▁کورٹیکس	-11.5813
▁پیغامات	-11.5813
▁فلمایا	-11.5818
▁سٹرنگ	-11.5832
8.1	-11.586
▁سلا	-11.5923
▁کینال	-11.5939
▁پہل	-11.5956
▁اجتماع	-11.6047
μ	-11.6072
ά	-11.6072
تفسیر	-11.6072
▁افسانہ	-11.6072
▁انحراف	-11.6072
▁زہریلے	-11.6072
▁زیادتی	-11.6072
▁ساوتھمپٹن	-11.6072
▁لمحے	-11.6072
▁مدنظر	-11.6072
▁معاوضے	-11.6072
▁پختگی	-11.6072
▁چیکوسلوواکیہ	-11.6072
▁کومکاسٹ	-11.6072
▁گھلنشیل	-11.6072
▁خالق	-11.6072
▁منڈیوں	-11.6072
▁کنکریٹ	-11.6072
▁بھیڑیوں	-11.6072
▁قاتل	-11.6072
▁1824	-11.6072
▁سادگی	-11.6072
▁سیگمنٹ	-11.6072
▁رینگنے	-11.6072
▁پویلین	-11.6072
▁یانگزی	-11.6072
▁کیوبیک	-11.6072
▁تورات	-11.6073
لوقا	-11.6073
▁سٹرلنگ	-11.6073
▁پاشا	-11.6073
▁Kill	-11.6074
▁ناراضگی	-11.6074
▁چچا	-11.6075
▁آدھا	-11.6075
▁بساو	-11.6077
▁وارانہ	-11.608
▁تائید	-11.6081
▁گریگوریائی	-11.6081
▁ڈوبنے	-11.6082
▁ریچھ	-11.6082
▁1926	-11.6082
▁اٹھاتے	-11.6082
▁تہوں	-11.6082
▁فارغ	-11.6083
▁خریدے	-11.6084
▁گزرتی	-11.6084
▁چڑھنے	-11.6085
▁پرنسٹن	-11.6085
▁300،000	-11.6089
2.6	-11.6091
▁نینو	-11.6107
▁چیئر	-11.6131
▁ریمس	-11.6168
وگرافی	-11.6311
▁اہلکار	-11.6315
پروشین	-11.6315
▁کیپسیٹر	-11.633
▁رفت	-11.6349
ω	-11.635
▁Mockingbird	-11.635
▁آمریت	-11.635
▁اٹھارہویں	-11.635
▁بینیڈکٹ	-11.635
▁تخریب	-11.635
▁خیرمقدم	-11.635
▁سرٹیفکیٹ	-11.635
▁سیموئیل	-11.635
▁عمومی	-11.635
▁فینوٹائپ	-11.635
▁قازقستان	-11.635
▁مجموعے	-11.635
▁مرتفع	-11.635
▁مشاہدات	-11.635
▁مہاجرین	-11.635
▁میٹابولزم	-11.635
▁میگوئل	-11.635
▁نائنٹینڈو	-11.635
▁کنڈیشنر	-11.635
▁باطل	-11.635
▁سیلولوز	-11.635
▁صفحے	-11.635
▁افسوس	-11.635
▁خسرہ	-11.635
▁مینوئل	-11.635
▁جنازے	-11.635
▁یونگلے	-11.635
▁ہیملٹن	-11.635
▁جینیفر	-11.635
▁موصل	-11.635
▁ہارلم	-11.635
▁ٹوکیو	-11.635
▁آگسٹس	-11.635
▁اوورلیپ	-11.635
▁لزبن	-11.635
▁فرشتہ	-11.6351
▁شائر	-11.6352
▁خوشبو	-11.6353
▁دھوپ	-11.6353
▁یلسن	-11.6354
▁جلوس	-11.6354
▁وٹنی	-11.6355
▁پولٹری	-11.6358
▁اگلا	-11.6358
▁روبن	-11.6359
▁چکی	-11.6361
▁ہائٹس	-11.6362
▁400،000	-11.6363
▁ڈھکے	-11.6364
▁مانیٹر	-11.6364
▁فلوٹ	-11.6366
کریٹک	-11.6484
زیادہ	-11.6629
▁معدنی	-11.6631
▁ریفارم	-11.6634
▁دبا	-11.6634
▁اسکواڈ	-11.6635
ṣ	-11.6636
▁اپوسٹولک	-11.6636
▁اکیلے	-11.6636
▁برمنگھم	-11.6636
▁ذہانت	-11.6636
▁ضابطہ	-11.6636
▁طاعون	-11.6636
▁لوکوموٹو	-11.6636
▁وائسرائے	-11.6636
▁پریزنٹیشن	-11.6636
▁چاہئیں	-11.6636
▁چراغ	-11.6636
▁کاربونیٹ	-11.6636
▁ہڈالگو	-11.6636
▁یکجہتی	-11.6636
δ	-11.6636
حشرات	-11.6636
▁بریگھم	-11.6636
▁موومنٹ	-11.6636
▁قلیل	-11.6636
▁سرمئی	-11.6636
▁1644	-11.6636
▁پروفائل	-11.6636
▁فرانز	-11.6636
▁ضرب	-11.6636
▁لیمبرٹ	-11.6636
▁گودام	-11.6637
▁استقبالیہ	-11.6637
▁ٹسکن	-11.6639
▁درسی	-11.664
▁پکانے	-11.664
▁پینتھر	-11.664
▁سلووینیا	-11.664
▁اسرار	-11.6641
▁صدور	-11.6641
▁لیونارڈ	-11.6642
▁اترنے	-11.6646
9.8	-11.6665
▁لنگر	-11.6714
ion	-11.6752
▁حب	-11.676
ماؤتھ	-11.6762
age	-11.6822
▁سلم	-11.6824
▁مفاد	-11.6925
▁Athanasius	-11.693
▁اعدادوشمار	-11.693
▁بندوبست	-11.693
▁بیوروکریسی	-11.693
▁جیومیٹری	-11.693
▁روابط	-11.693
▁قطار	-11.693
▁مجسموں	-11.693
▁مستثنیات	-11.693
▁معزز	-11.693
▁معینہ	-11.693
▁پروفیشنل	-11.693
▁ڈھانپ	-11.693
▁کٹھمنڈو	-11.693
▁کھنڈرات	-11.693
▁آئیڈیلزم	-11.693
▁لیکسنگٹن	-11.693
▁گپتا	-11.693
▁سیکورٹی	-11.693
▁الائنس	-11.693
▁لگاتار	-11.693
▁بیچوان	-11.693
▁حویلی	-11.693
▁اناٹومی	-11.693
▁ارنسٹ	-11.693
▁سکریپ	-11.693
▁پھیری	-11.693
▁چادر	-11.693
▁حرب	-11.6931
▁ریٹائرمنٹ	-11.6931
،600	-11.6932
▁وحی	-11.6933
▁کینبرا	-11.6934
▁امتحانات	-11.6935
▁فلورنس	-11.6935
▁ڈھکنے	-11.6937
پرتگالی	-11.6951
(	-11.6951
▁انگریز	-11.7171
▁جاسوس	-11.7208
▁ٹیکنو	-11.7213
▁آبپاشی	-11.7233
▁اونٹاریو	-11.7233
▁برینڈنبرگ	-11.7233
▁بلوغت	-11.7233
▁تحائف	-11.7233
▁تقدیر	-11.7233
▁جرنیلوں	-11.7233
▁دہندہ	-11.7233
▁سنسرشپ	-11.7233
▁سکریٹری	-11.7233
▁عظمت	-11.7233
▁نعرے	-11.7233
▁پروٹوٹائپ	-11.7233
▁کنزرویٹری	-11.7233
▁ہاؤنڈ	-11.7233
▁ہاضمہ	-11.7233
▁خیمے	-11.7233
▁دہرایا	-11.7233
▁فزیکل	-11.7233
▁نیوکلیئس	-11.7233
▁چھاپہ	-11.7233
▁گشت	-11.7233
▁سدرن	-11.7233
▁دھڑوں	-11.7233
▁گندم	-11.7233
▁ہلاکتیں	-11.7233
▁ناریل	-11.7233
▁بوئنگ	-11.7233
▁کبوتر	-11.7233
▁گڑیا	-11.7233
▁جامنی	-11.7233
▁یورینس	-11.7233
▁رگڑ	-11.7233
▁پرندہ	-11.7233
▁زمرہ	-11.7234
▁فیلکس	-11.7234
▁ایڈمنڈ	-11.7235
▁لوپیز	-11.7235
▁چمکدار	-11.7235
▁نکسن	-11.7235
▁ونسٹن	-11.7235
▁فلیش	-11.7237
▁آئرس	-11.7237
▁جیانگسو	-11.7237
▁ٹکرا	-11.7238
▁دسواں	-11.7238
TF	-11.7238
▁ڈارٹ	-11.724
▁کردیں	-11.7241
▁حسن	-11.7242
بڑے	-11.7248
▁ربن	-11.7269
▁فرانک	-11.7324
▁پھ	-11.7508
q	-11.7543
ū	-11.7545
▁اغوا	-11.7545
▁الحاق	-11.7545
▁انسداد	-11.7545
▁ایمانوئل	-11.7545
▁بجانے	-11.7545
▁طلوع	-11.7545
▁عضو	-11.7545
▁عمدہ	-11.7545
▁فلسفوں	-11.7545
▁مائکروجنزم	-11.7545
▁مداحوں	-11.7545
▁موگادیشو	-11.7545
▁پاؤڈر	-11.7545
▁پروجیکشن	-11.7545
▁پروپیگنڈا	-11.7545
▁پورٹسماؤتھ	-11.7545
▁پینگوئن	-11.7545
▁چالکتا	-11.7545
▁گڑھے	-11.7545
▁آبنائے	-11.7545
▁اقتباس	-11.7545
▁برادران	-11.7545
▁فلامنٹ	-11.7545
▁محض	-11.7545
▁چیروکی	-11.7545
▁رئیل	-11.7545
▁1843	-11.7545
▁روانگی	-11.7545
▁سوئز	-11.7545
▁سکاؤٹ	-11.7545
▁فوجیوارا	-11.7545
▁مٹھی	-11.7545
▁بیڑا	-11.7545
▁کررہا	-11.7545
▁چوہوں	-11.7546
▁پیلیولیتھک	-11.7546
▁دوگنی	-11.7546
▁ایوینیو	-11.7546
▁ہائیڈرولک	-11.7548
▁افرو	-11.7549
▁بکتر	-11.7549
▁اسٹروک	-11.755
▁پرائس	-11.755
▁جگر	-11.7552
▁اینجل	-11.7558
سنسکرت	-11.7628
بھول	-11.77
2.8	-11.7714
▁ریپبلک	-11.7752
حرفی	-11.7797
▁سیاح	-11.7822
▁مرغی	-11.7831
▁آزمائش	-11.7868
▁آلودہ	-11.7868
▁تحفہ	-11.7868
▁جوناتھن	-11.7868
▁خروشچوف	-11.7868
▁دانشوروں	-11.7868
▁ستارے	-11.7868
▁غلبے	-11.7868
▁متصادم	-11.7868
▁مشتق	-11.7868
▁مطمئن	-11.7868
▁ٹھہرایا	-11.7868
▁پالمرسٹن	-11.7868
▁پراپرٹی	-11.7868
▁چاہیے	-11.7868
ي	-11.7868
▁اوسبورن	-11.7868
▁باورچی	-11.7868
▁تھورنگین	-11.7868
▁راضی	-11.7868
▁زنجیر	-11.7868
▁ٹائیگرز	-11.7868
▁چھاپے	-11.7868
▁یوایسبی	-11.7868
▁رینڈرنگ	-11.7868
▁لبرٹی	-11.7868
▁آمیز	-11.7868
▁سیئول	-11.7868
▁موٹائی	-11.7868
▁دواؤں	-11.7868
▁پکاسو	-11.7868
▁کنگڈم	-11.7868
▁ربڑ	-11.7868
▁ٹیوشن	-11.7869
▁عیش	-11.7869
▁پاؤں	-11.7869
▁پاگل	-11.7869
▁ٹرائلز	-11.7871
▁کھائے	-11.7871
▁سیاروں	-11.7871
▁کیسینو	-11.7872
▁یانکی	-11.7874
▁فونوگراف	-11.7882
امریکہ	-11.7987
▁براڈکاسٹ	-11.7993
2015	-11.7997
▁ٹارٹ	-11.8191
▁شفا	-11.8199
▁سوازی	-11.82
▁Princess	-11.8201
▁اجراء	-11.8201
▁تمغے	-11.8201
▁تھراواڈا	-11.8201
▁دفعات	-11.8201
▁دمشق	-11.8201
▁سلوواکیہ	-11.8201
▁شریعت	-11.8201
▁فاسفورس	-11.8201
▁فلوروسینٹ	-11.8201
▁فلینڈرز	-11.8201
▁مشروط	-11.8201
▁معاویہ	-11.8201
▁ٹھنڈے	-11.8201
▁کھوپڑی	-11.8201
▁کینٹربری	-11.8201
γ	-11.8201
▁CAR	-11.8201
▁انتقام	-11.8201
▁بارٹلمی	-11.8201
▁راجپوت	-11.8201
▁سلسلوں	-11.8201
▁سیکریٹری	-11.8201
▁ڈرائنگ	-11.8201
▁1831	-11.8201
▁کمرشل	-11.8201
دھرما	-11.8201
▁خلل	-11.8201
▁ملبے	-11.8201
▁ریشے	-11.8201
▁کینسنگٹن	-11.8201
▁ہائیڈرائڈ	-11.8201
▁پارٹنرشپ	-11.8202
▁شرٹس	-11.8202
▁زیجیانگ	-11.8203
▁الساس	-11.8204
▁ارادی	-11.8204
▁کرسکیں	-11.8205
▁لنچ	-11.8205
▁اسٹریپ	-11.8212
ہسپانوی	-11.8351
برطانوی	-11.8355
تمام	-11.8358
▁ثالث	-11.8521
▁محب	-11.8539
θ	-11.8546
′	-11.8546
▁Cubs	-11.8546
▁ازبکستان	-11.8546
▁انڈپینڈنٹ	-11.8546
▁بوہیمیا	-11.8546
▁تلچھٹ	-11.8546
▁خسارے	-11.8546
▁درپیش	-11.8546
▁سلواڈور	-11.8546
ί	-11.8903
ì	-11.9273
о	-11.9658
η	-11.9658
а	-11.9658
с	-11.9658
е	-12.0058
Ü	-12.0475
ό	-12.091
к	-12.091
۱	-12.1364
ú	-12.184
ê	-12.184
É	-12.184
;	-12.234
и	-12.2867
ś	-12.3422
ě	-12.3422
ة	-12.3422
ἀ	-12.3422
ա	-12.401
Π	-12.4635
р	-12.4635
$	-12.5098
~	-12.5302
â	-12.5302
ē	-12.5302
漢	-12.5302
в	-12.6016
۹	-12.6016
χ	-12.6016
्	-12.6786
š	-12.6786
字	-12.6786
υ	-12.6786
ύ	-12.6786
星	-12.7619
σ	-12.7619
נ	-12.8528
я	-12.8528
у	-12.8528
ו	-12.8528
ô	-12.8528
§	-12.8528
י	-12.8528
َ	-12.8528
Δ	-12.9528
ר	-12.9528
β	-12.9528
ø	-12.9528
ώ	-12.9528
王	-12.9528
т	-12.9528
ò	-13.0639
大	-13.0639
國	-13.0639
£	-13.097
·	-13.1889
ã	-13.1889
ć	-13.1889
ş	-13.1889
ǎ	-13.1889
ή	-13.1889
喜	-13.1889
書	-13.1889
л	-13.1889
ְ	-13.3318
子	-13.3318
ン	-13.3318
ð	-13.3318
ź	-13.3318
ה	-13.3318
ת	-13.3318
支	-13.3318
西	-13.3318
φ	-13.3318
ħ	-13.4984
ु	-13.4984
ק	-13.4984
å	-13.4984
リ	-13.4984
Á	-13.4984
ž	-13.4984
ス	-13.4984
?	-13.4984
ł	-13.4984
ь	-13.4984
أ	-13.4984
म	-13.4984
书	-13.4984
府	-13.4984
東	-13.4984
衛	-13.4984
试	-13.4984
õ	-13.4984
元	-13.4984
ध	-13.4984
र	-13.4984
ד	-13.6984
क	-13.6984
ख	-13.6984
民	-13.6984
ʻ	-13.6984
ï	-13.6984
۴	-13.6984
军	-13.6984
建	-13.6984
白	-13.6984
方	-13.6984
ִ	-13.6984
陳	-13.6984
א	-13.9484
û	-13.9484
ŋ	-13.9484
۲	-13.9484
@	-13.9484
¥	-13.9484
î	-13.9484
ù	-13.9484
đ	-13.9484
ʼ	-13.9484
Η	-13.9484
ы	-13.9484
מ	-13.9484
ك	-13.9484
۶	-13.9484
ー	-13.9484
代	-13.9484
后	-13.9484
帥	-13.9484
法	-13.9484
田	-13.9484
蕃	-13.9484
京	-13.9484
唐	-13.9484
г	-13.9484
剑	-13.9484
한	-13.9484
都	-13.9484
ս	-14.2817
驗	-14.2817
验	-14.2817
д	-14.2818
ի	-14.2818
プ	-14.2818
ト	-14.2818
장	-14.2818
ý	-14.2818
þ	-14.2818
̀	-14.2818
Β	-14.2818
Λ	-14.2818
ा	-14.2818
া	-14.2818
り	-14.2818
タ	-14.2818
五	-14.2818
区	-14.2818
发	-14.2818
吉	-14.2818
士	-14.2818
开	-14.2818
徒	-14.2818
朝	-14.2818
督	-14.2818
藏	-14.2818
話	-14.2818
话	-14.2818
趙	-14.2818
過	-14.2818
Ν	-14.2818
入	-14.2818
น	-14.7817
า	-14.7817
ร	-14.7817
ส	-14.7817
Φ	-14.7817
з	-14.7817
բ	-14.7817
ր	-14.7817
त	-14.7818
ि	-14.7818
্	-14.7818
レ	-14.7818
ロ	-14.7818
夷	-14.7818
女	-14.7818
将	-14.7818
征	-14.7818
ח	-14.7818
双	-14.7818
雙	-14.7818
Ô	-14.7818
Ø	-14.7818
Γ	-14.7818
ъ	-14.7818
Լ	-14.7818
Պ	-14.7818
կ	-14.7818
ַ	-14.7818
ۃ	-14.7818
۰	-14.7818
۸	-14.7818
イ	-14.7818
三	-14.7818
东	-14.7818
产	-14.7818
候	-14.7818
光	-14.7818
包	-14.7818
口	-14.7818
复	-14.7818
寧	-14.7818
对	-14.7818
師	-14.7818
平	-14.7818
張	-14.7818
後	-14.7818
恢	-14.7818
持	-14.7818
按	-14.7818
政	-14.7818
族	-14.7818
有	-14.7818
校	-14.7818
案	-14.7818
武	-14.7818
江	-14.7818
浦	-14.7818
海	-14.7818
渣	-14.7818
灾	-14.7818
知	-14.7818
腐	-14.7818
舍	-14.7818
讀	-14.7818
豆	-14.7818
越	-14.7818
重	-14.7818
針	-14.7818
音	-14.7818
顯	-14.7818
교	-14.7818
도	-14.7818
ـ	-14.7818
楊	-14.7818
親	-14.7818
ल	-14.7818
业	-14.7818
新	-14.7818
高	-14.7818
隶	-15.7656
菩	-15.7657
红	-15.7658
紅	-15.7659
番	-15.766
烏	-15.7661
斯	-15.7662
基	-15.7663
圖	-15.7664
吐	-15.7665
十	-15.7666
利	-15.7667
切	-15.7668
來	-15.7669
中	-15.767
シ	-15.7671
ら	-15.7672
ぶ	-15.7673
さ	-15.7674
√	-15.7675
ὸ	-15.7676
ụ	-15.7677
ố	-15.7678
۷	-15.7679
ۂ	-15.768
ٍ	-15.7681
ש	-15.7682
ל	-15.7683
ׂ	-15.7684
ָ	-15.7685
ֵ	-15.7686
П	-15.7687
К	-15.7688
ζ	-15.7689
Ψ	-15.769
̊	-15.7691
ơ	-15.7692
Š	-15.7693
Ş	-15.7694
œ	-15.7695
ę	-15.7696
ė	-15.7697
Ē	-15.7698
ą	-15.7699
해	-15.77
조	-15.7701
방	-15.7702
기	-15.7703
韓	-15.7704
震	-15.7705
福	-15.7706
爭	-15.7707
渤	-15.7708
泥	-15.7709
汶	-15.771
术	-15.7711
技	-15.7712
戰	-15.7713
成	-15.7714
川	-15.7715
地	-15.7716
土	-15.7717
南	-15.7718
ミ	-15.7719
フ	-15.772
コ	-15.7721
キ	-15.7722
ァ	-15.7723
ῆ	-15.7724
ष	-15.7725
ठ	-15.7726
ى	-15.7727
إ	-15.7728
ּ	-15.7729
ж	-15.773
Р	-15.7731
В	-15.7732
ψ	-15.7733
Æ	-15.7734
戦	-15.7735
思	-15.7736
力	-15.7737
俄	-15.7738
争	-15.7739
丹	-15.774
Ṣ	-15.7741
ٔ	-15.7742
צ	-15.7743
հ	-15.7744
̧	-15.7745
́	-15.7746
ļ	-15.7747
ğ	-15.7748
Õ	-15.7749
Î	-15.775
卫	-15.7751
⁄	-15.7752
द	-15.7753
ն	-15.7754
յ	-15.7755
ш	-15.7756
Σ	-15.7757
Α	-15.7758
ń	-15.7759
전	-15.776
쟁	-15.7761
국	-15.7762
₹	-15.7763
Ś	-15.7764
Ā	-15.7765
±	-15.7766
}	-15.7767
{	-15.7768
ṭ	-15.7769
й	-15.777
ë	-15.7771
Ö	-15.7772
铺	-15.7773
紫	-15.7774
水	-15.7775
库	-15.7776
坪	-15.7777
❤	-15.7778
•	-15.7779
м	-15.778
Κ	-15.7781
Ż	-15.7782
›	-15.7783
ْ	-15.7784
̃	-15.7785
İ	-15.7786
航	-15.7787
统	-15.7788
系	-15.7789
斗	-15.779
导	-15.7791
北	-15.7792
ῖ	-15.7793
Χ	-15.7794
<	-15.7795
ḥ	-15.7796
ξ	-15.7797
ß	-15.7798
۳	-15.7799
ّ	-15.78
^	-15.7801
→	-15.7802
€	-15.7803
۵	-15.7804
ç	-15.7805
н	-15.7806
_	-15.7807
ṇ	-15.7808
ı	-15.7809
έ	-15.781
ñ	-15.7811
#	-15.7812
×	-15.7813
τ	-15.7814
ً	-15.7815
[	-15.7816
ย	-15.7817
ศ	-15.7817
ิ	-15.7817
ี	-15.7817
ژ	-15.7817
Є	-15.7817
ง	-15.7817
อ	-15.7817
เ	-15.7817
โ	-15.7817
п	-15.7817
Հ	-15.7817
տ	-15.7817
ց	-15.7817
র	-15.7817
軍	-15.7817
ɨ	-15.7818
פ	-15.7818
ಚ	-15.7818
ಶ	-15.7818
್	-15.7818
の	-15.7818
ク	-15.7818
ゼ	-15.7818
ダ	-15.7818
ル	-15.7818
苏	-15.7818
대	-15.7818
예	-15.7818
Ó	-15.7818
ὐ	-15.7818
总	-15.7818
汉	-15.7818
¡	-15.7818
¢	-15.7818
ċ	-15.7818
ġ	-15.7818
Ł	-15.7818
ő	-15.7818
Ε	-15.7818
А	-15.7818
Х	-15.7818
б	-15.7818
ч	-15.7818
ז	-15.7818
ם	-15.7818
ס	-15.7818
ः	-15.7818
ग	-15.7818
न	-15.7818
प	-15.7818
জ	-15.7818
প	-15.7818
ম	-15.7818
য	-15.7818
ল	-15.7818
স	-15.7818
ಮ	-15.7818
ಿ	-15.7818
ỉ	-15.7818
ồ	-15.7818
ờ	-15.7818
ὶ	-15.7818
は	-15.7818
セ	-15.7818
チ	-15.7818
パ	-15.7818
ピ	-15.7818
ャ	-15.7818
ュ	-15.7818
ラ	-15.7818
ワ	-15.7818
丁	-15.7818
下	-15.7818
主	-15.7818
义	-15.7818
事	-15.7818
仔	-15.7818
仕	-15.7818
他	-15.7818
会	-15.7818
伝	-15.7818
伯	-15.7818
何	-15.7818
侍	-15.7818
像	-15.7818
兵	-15.7818
凹	-15.7818
前	-15.7818
剧	-15.7818
叠	-15.7818
古	-15.7818
和	-15.7818
块	-15.7818
坤	-15.7818
城	-15.7818
堂	-15.7818
塊	-15.7818
変	-15.7818
天	-15.7818
奴	-15.7818
妹	-15.7818
安	-15.7818
巡	-15.7818
帝	-15.7818
常	-15.7818
廷	-15.7818
忒	-15.7818
提	-15.7818
撫	-15.7818
教	-15.7818
文	-15.7818
日	-15.7818
時	-15.7818
替	-15.7818
本	-15.7818
杭	-15.7818
松	-15.7818
様	-15.7818
標	-15.7818
比	-15.7818
泉	-15.7818
济	-15.7818
準	-15.7818
潮	-15.7818
片	-15.7818
特	-15.7818
理	-15.7818
用	-15.7818
甫	-15.7818
異	-15.7818
社	-15.7818
秀	-15.7818
緑	-15.7818
緣	-15.7818
緩	-15.7818
经	-15.7818
臣	-15.7818
興	-15.7818
船	-15.7818
良	-15.7818
苗	-15.7818
草	-15.7818
萨	-15.7818
蒲	-15.7818
薩	-15.7818
虫	-15.7818
蝶	-15.7818
表	-15.7818
覆	-15.7818
見	-15.7818
説	-15.7818
議	-15.7818
豊	-15.7818
起	-15.7818
逸	-15.7818
道	-15.7818
金	-15.7818
陵	-15.7818
陽	-15.7818
館	-15.7818
體	-15.7818
그	-15.7818
독	-15.7818
로	-15.7818
리	-15.7818
수	-15.7818
스	-15.7818
회	-15.7818
刘	-15.7818
印	-15.7818
審	-15.7818
拼	-15.7818
朱	-15.7818
皇	-15.7818
绍	-15.7818
義	-15.7818
耶	-15.7818
言	-15.7818
ṛ	-15.7818
ἐ	-15.7818
上	-15.7818
х	-15.7818
ظ	-15.7818
